{"version":"1.0","truncation":null,"padding":null,"added_tokens":[{"id":0,"content":"[PAD]","single_word":false,"lstrip":false,"rstrip":false,"normalized":false,"special":true},{"id":1,"content":"[UNK]","single_word":false,"lstrip":false,"rstrip":false,"normalized":false,"special":true},{"id":2,"content":"[CLS]","single_word":false,"lstrip":false,"rstrip":false,"normalized":false,"special":true},{"id":3,"content":"[SEP]","single_word":false,"lstrip":false,"rstrip":false,"normalized":false,"special":true},{"id":4,"content":"[QRY]","single_word":false,"lstrip":false,"rstrip":false,"normalized":false,"special":true},{"id":5,"content":"[DOC]","single_word":false,"lstrip":false,"rstrip":false,"normalized":false,"special":true}],"normalizer":{"type":"NFKC"},"pre_tokenizer":{"type":"ByteLevel","add_prefix_space":false,"trim_offsets":true,"use_regex":true},"post_processor":{"type":"TemplateProcessing","single":[{"SpecialToken":{"id":"[CLS]","type_id":0}},{"Sequence":{"id":"A","type_id":0}},{"SpecialToken":{"id":"[SEP]","type_id":0}}],"pair":[{"SpecialToken":{"id":"[CLS]","type_id":0}},{"Sequence":{"id":"A","type_id":0}},{"SpecialToken":{"id":"[SEP]","type_id":0}},{"Sequence":{"id":"B","type_id":1}},{"SpecialToken":{"id":"[SEP]","type_id":1}}],"special_tokens":{"[CLS]":{"id":"[CLS]","ids":[2],"tokens":["[CLS]"]},"[SEP]":{"id":"[SEP]","ids":[3],"tokens":["[SEP]"]}}},"decoder":{"type":"ByteLevel","add_prefix_space":true,"trim_offsets":true,"use_regex":true},"model":{"type":"Unigram","unk_id":1,"vocab":[["[PAD]",0.0],["[UNK]",0.0],["[CLS]",0.0],["[SEP]",0.0],["[QRY]",0.0],["[DOC]",0.0],["Ġ",-2.9048485396213657],[",",-3.1756724984454774],["s",-3.939543251643677],["Ġthe",-4.012747308080659],[".",-4.180169060395263],["ãĢĤ",-4.3167962733391025],["ed",-4.559171098446658],["Ġof",-4.6284085338212435],["çļĦ",-4.6889567331852025],["Ġand",-4.824035080350839],["Ġa",-4.837724831979562],["Ġin",-4.8894720691972395],["Ġto",-5.14398012721148],["ãĢģ",-5.157896289960865],["-",-5.238858468360391],["y",-5.2787455804419885],["ing",-5.370975934577153],["å¹´",-5.3787062578233265],["e",-5.426394624545312],[")",-5.437283056813644],["t",-5.569229146402552],["åľ¨",-5.718387455604324],["(",-5.742681530961963],["Ġ(",-5.7497220015763535],["Ġwas",-5.774196336082564],["m",-5.878793188393173],["'",-5.942277885379605],["Ġbe",-5.949939603548975],[":",-5.960199239600824],["ly",-5.978126172599909],["2",-5.995706383508908],["Ġon",-6.022458211682823],["Ġfor",-6.025282625789414],["Ġis",-6.028425475997162],["æľĪ",-6.045478518296058],["åĴĮ",-6.046046212427454],["1",-6.0522210804348635],["n",-6.12483811697896],["4",-6.142717741315593],["er",-6.157257023320568],["Ġwith",-6.161515649302919],["5",-6.1742014491366],["ĠThe",-6.1782026031108455],["Ġas",-6.210950279313595],["Ġby",-6.236363884091926],["es",-6.243414845091451],["3",-6.291971723128146],["d",-6.301824031475391],["6",-6.303605928303433],["7",-6.326745202023906],["8",-6.329862174065495],["9",-6.3580562314265645],["æĺ¯",-6.375387742328858],["\"",-6.403203045018428],["æĹ¥",-6.437246389800052],["ãĢĬ",-6.440423765543299],["Ġtha",-6.461334129296127],["0",-6.502107449014186],["Â",-6.526056042590103],["·",-6.526672397920571],["en",-6.545615925483764],["ä¸Ń",-6.55118496879429],["Ġat",-6.558195370747464],["Ġfro",-6.561062374748641],["ch",-6.569830896735716],["al",-6.642489374754922],["âĢĵ",-6.66233991334013],["Ġhis",-6.666659435771438],["ĠA",-6.672872820020023],["Ġ\"",-6.6772333906176],[";",-6.679722294781696],["a",-6.709899684712301],["Ġan",-6.710122392410797],["ĠS",-6.711677816499494],["ãĢĭ",-6.7119323266638204],["ãĢĮ",-6.71705384914689],["âĢľ",-6.720457000421712],["),",-6.732179471927289],["äºĨ",-6.744087200217269],["Ġhe",-6.778158961175986],["st",-6.804035059976197],["Ġit",-6.806785610806747],["ĠC",-6.826804048630542],["æľī",-6.8345379503156405],["The",-6.866059776011005],["çĤº",-6.870529695510589],["ä»¥",-6.872969103976796],["Ġc",-6.88420200718342],["äºº",-6.900160478519556],["èĪĩ",-6.924226477709203],["201",-6.933994751817762],["Ġwhi",-6.966721787059727],["200",-6.989934394909502],["ä¸º",-6.995719543200121],["ä¸Ĭ",-7.018187272125749],["èĢĮ",-7.034486934112559],["Ġ200",-7.0623210358938735],["æĸ¼",-7.078957070403483],["Ġw",-7.0791303060625275],["è¢«",-7.093393243805444],["å¤§",-7.107290947068353],["||",-7.111951596823381],["/",-7.123833587815758],["åıĬ",-7.140780299393697],["20",-7.147346123121173],["or",-7.168500140020464],["le",-7.1700156706517255],["Ġare",-7.1758943206234775],["th",-7.177123441940605],["were",-7.185254671130428],["o",-7.197809293497745],["Ġre",-7.2050943171249795],["ĠIn",-7.209259797567043],["10",-7.213308367102622],["ĠD",-7.21720864319866],["in",-7.223854386885611],["ĠHe",-7.224353675621295],["ãĢį",-7.251498016135793],["ion",-7.25800753100758],["çŃī",-7.267731604093159],["A",-7.268501054607183],["çĶ±",-7.283038278089748],["lso",-7.298040641455522],["ir",-7.306919270154522],["had",-7.310339874243386],["ers",-7.323606165836765],["Ġp",-7.326439182787567],["S",-7.338594719553422],["âĢĿ",-7.366828322002718],["Ġde",-7.374013548691826],["ĠM",-7.378481868381861],["Ġor",-7.391160057351465],["i",-7.395074152826593],["r",-7.412576406540234],["å¾Į",-7.417913886077322],["åĪ°",-7.419534673877248],["ä¹ĭ",-7.42057112311587],["ĠP",-7.423469743108647],["19",-7.424235346828745],["Ġnot",-7.426888347316359],["ä»ĸ",-7.434693111855411],["Ġfir",-7.442714147510191],["In",-7.443329570172148],["Ġwho",-7.449123963270818],["Ġhas",-7.4529369596354496],["12",-7.46054968364404],["ary",-7.462334183848327],["åħ¶",-7.467739271584703],["ĠL",-7.48436761878502],["ä¸į",-7.485757127000451],["ian",-7.494195851745097],["ä¸İ",-7.508117182694878],["ä¸Ģ",-7.510260548195685],["æĻĤ",-7.520217829682069],["199",-7.540504919218556],["Ġf",-7.545021604476837],["()",-7.551824238960151],["åĲİ",-7.552219551561414],["Ġ201",-7.578088106383955],["ä½Ĩ",-7.579731087277267],["äºİ",-7.580042636902112],["year",-7.5829847446690515],["11",-7.583728610201122],["ish",-7.589959277856378],["Ġ199",-7.591882715832595],["one",-7.593879175918992],["èĩ³",-7.5950597766160115],["w",-7.603414867324089],["ä¹Ł",-7.604878251968923],["ä¸ĭ",-7.608565966733368],["ĠI",-7.608895927856571],["Ġd",-7.60947629408089],["ĠR",-7.631257346967658],["2013",-7.633309293877527],["196",-7.646401233044351],["Ġun",-7.66933306826512],["Ġbut",-7.676050522204642],["ĠIt",-7.680714640324094],[").",-7.689017062463035],["C",-7.699124706231089],["ĠE",-7.700889786407236],["Ġafter",-7.701830694464292],["ive",-7.710366836743532],["ĠB",-7.71201230516769],["ation",-7.71746982541212],["åľ°",-7.726509258302412],["ity",-7.73130187290308],["Ġher",-7.731331947372132],["ĠF",-7.731717424120321],["ä¸¦",-7.732087637771571],["two",-7.739837256859623],["åīį",-7.746510585119903],["have",-7.750935049911231],["other",-7.752264807343714],["ĠT",-7.75576783673427],["æīĢ",-7.760867167157729],["æĪĸ",-7.763224964379049],["åŃĲ",-7.772218301146671],["åĲį",-7.773381037712904],["æĸ°",-7.777487827401364],["ould",-7.793422855025867],["on",-7.79441088912808],["ies",-7.803620162848119],["%",-7.812630353030045],["D",-7.814485146545422],["å¾·",-7.8148624621656975],["åĪĨ",-7.818024615020823],["Ġplay",-7.824112389493298],["Ġb",-7.826499035465778],["198",-7.834342544414554],["å±±",-7.83580783371761],["um",-7.836964669325614],["ic",-7.852577905523857],["è¥¿",-7.855592935761983],["å¹¶",-7.861991561901904],["Ġm",-7.875375209786094],["ä¸ī",-7.884182203269706],["å°ĩ",-7.886150281455532],["å®¶",-7.891290749744777],["Ġh",-7.897089324072608],["this",-7.910030947011196],["Ġt",-7.912903351312716],["c",-7.92743468641711],["ĠNew",-7.932273876913479],["Ġwork",-7.932763288615986],["us",-7.934315358433026],["Ġ19",-7.936737151910608],["é«ĺ",-7.938899519583625],["18",-7.939148429639768],["åĩº",-7.940128998139775],["æĹ¶",-7.941986933610401],["æĸĩ",-7.951517986071674],["éķ·",-7.952546133798081],["Ġ198",-7.957246009118408],["Ġout",-7.957254440245119],["15",-7.96048076477191],["å°ı",-7.961266765685932],["å¤ļ",-7.96159836155748],["B",-7.963166477399195],["æĸ¯",-7.966097889379325],["ĠState",-7.967849252866292],["ĠN",-7.970157107238394],["Ġover",-7.972652056660167],["able",-7.9796911551714285],["å°į",-7.984235342733318],["ĠK",-7.989579905226836],["197",-7.990754015327912],["21",-7.994988620235962],["çī¹",-8.000367406297304],["Ġpart",-8.001383507913367],["se",-8.001847285782727],["Ġname",-8.00251860576786],["Ġcan",-8.008069735248391],["him",-8.00993863414478],["Ġinto",-8.010078275252571],["Ġus",-8.021710580061274],["åįĹ",-8.022145310496171],["M",-8.02337639502484],["k",-8.02439541825306],["Ġtime",-8.026884748104521],["uring",-8.028683239247627],["u",-8.031887854594814],["l",-8.032873084771644],["èĢħ",-8.033758309456774],["ç¬¬",-8.034093024741914],["day",-8.035421279825758],["ember",-8.039895511523099],["éĥ½",-8.046665359738402],["16",-8.046973697049564],["åĽł",-8.050245728824251],["ä»¥åıĬ",-8.05047058881317],["ĠG",-8.056691248068367],["åĲĳ",-8.057518243136748],["èĩª",-8.058463262321169],["more",-8.066328551997985],["éģĵ",-8.072993609399777],["Ġup",-8.073447658599527],["ç±³",-8.074377848274473],["P",-8.078737731837993],["an",-8.080052332731329],["å¯¹",-8.08059551783741],["Ġ20",-8.083111087683298],["å¤©",-8.08624071874357],["ĠW",-8.087351076595471],["h",-8.089120362976132],["åħ¬éĩĮ",-8.090074598253958],["Ġall",-8.090403007986074],["çĶ¨",-8.090834809616318],["ĠO",-8.09550441895805],["Ġ197",-8.095613389090971],["ĠY",-8.096438938071074],["f",-8.101998135658352],["å·ŀ",-8.106269230068119],["Ġl",-8.107845034037318],["30",-8.107995464720423],["Ġwhe",-8.109930355740858],["ä½¿çĶ¨",-8.112979506395837],["æ°´",-8.114875084650707],["g",-8.122349843517888],["ĠUnit",-8.12238060472708],["re",-8.127576994568408],["æľĥ",-8.13081896864394],["éĩĳ",-8.132712567419398],["åı¯",-8.133405112126422],["çİĭ",-8.13519154096274],["195",-8.136969991117926],["ce",-8.148645775618817],["most",-8.152398858130722],["?",-8.155309654926079],["Ġnew",-8.156174400963053],["born",-8.163437539024939],["ĠH",-8.16795115279518],["æ³ķ",-8.168690162983584],["å°Ĩ",-8.177505946913541],["ĠU",-8.178043768170868],["Ġ1",-8.179477611600149],["åŁİ",-8.182194398425814],["æĭī",-8.183844801916717],["|",-8.18500363039201],["å¤ĸ",-8.192998014297887],["T",-8.193163804899655],["æľ¬",-8.1962298936843],["way",-8.197501420462537],[")ãĢĤ",-8.203003150099065],["Ġfilm",-8.20507439824961],["éĩĮ",-8.207012728805383],["twe",-8.209042150581759],["000",-8.217307804078645],["man",-8.217712945661173],["æĢ§",-8.219513090549842],["Ġman",-8.221072936149405],["ry",-8.222750013868888],["æµ·",-8.223969244188506],["land",-8.235719547672705],["son",-8.236293786685524],["p",-8.23722485042904],["å¸Ĥ",-8.2387481720409],["b",-8.240669983786546],["æ¯Ķ",-8.241209093117988],["çĶŁ",-8.242101032321008],["æĪĲ",-8.243313279556407],["Ġshe",-8.244199642113209],["Ġex",-8.248283537833474],["R",-8.250219832339917],["ä¸ŃåĽ½",-8.254519671268305],["Ġwhere",-8.258919637770045],["è·¯",-8.259745896011154],["ous",-8.260060597424456],["well",-8.261819123538848],["K",-8.263155246380773],["14",-8.264070629150982],["17",-8.264496026680384],["å¥¹",-8.264694111154938],["ç«Ļ",-8.26782055003111],["æĹ¥æľ¬",-8.271593681821997],["ment",-8.274903392328522],["Ġsome",-8.275514475563565],["Ġunder",-8.283599382154016],["åĽĽ",-8.285712085958624],["13",-8.285838826581205],["Ġdi",-8.29435660656122],["I",-8.29561611183711],["ever",-8.297271158118217],["è©²",-8.301591352629353],["å®ī",-8.302259008953452],["fore",-8.302323958164415],["ton",-8.305381182100163],["194",-8.32237701193059],["åĨħ",-8.325789599680727],["ĠUniversit",-8.328359510473287],["includ",-8.331525893294296],["åħĭ",-8.334822462703606],["ĠThi",-8.335386537563949],["season",-8.33927772170936],["åĮħæĭ¬",-8.34047727806648],["el",-8.342221909987096],["æŀĹ",-8.344869302080403],["ia",-8.345262492505007],["ĠAmerican",-8.347490131171526],["Ġhigh",-8.348395435729461],["came",-8.35018948159231],["ä»İ",-8.351396211493725],["L",-8.353033691822954],["24",-8.353163349010332],["E",-8.357834181313248],["åİŁ",-8.358071254557693],["Ġthre",-8.35928205238288],["ĠJ",-8.361697604711399],["Ġfollow",-8.362115958045269],["known",-8.366871064614147],["åı°",-8.37231846912128],["éĥ¨",-8.374415570299279],["å¾ŀ",-8.37645433232986],["about",-8.382788162928113],["later",-8.389163157477029],["éķ¿",-8.391791778896732],["through",-8.39242947264367],["Japan",-8.39267054778411],["F",-8.394866972238246],["ĠSt",-8.39641782113344],["Ġgame",-8.397726869836983],["&",-8.398272506304238],["made",-8.398397763964796],["æĶ¿åºľ",-8.399227588653254],["åĽłæŃ¤",-8.399920918891386],["ç¾İ",-8.400002946259658],["åĮĹ",-8.403216951751084],["ther",-8.404164484801989],["such",-8.405720272517886],["å°±",-8.407676917270647],["ä½įæĸ¼",-8.40781711391433],["æĿİ",-8.411466571428104],["Ġschool",-8.411944061507917],[")ãĢģ",-8.412787227829657],["N",-8.415001632947309],["æ²³",-8.416744746325753],["its",-8.417233415380476],["=",-8.42179625244713],["age",-8.423904603815757],["åħ¬åı¸",-8.424512823494236],["ions",-8.425525901574844],["å·´",-8.427234969370247],["22",-8.429118255246351],["Ġ194",-8.429463005548193],["è¯¥",-8.431021264922846],["z",-8.439690887539598],["\".",-8.442284978751976],["Ġteam",-8.445052656234132],["and",-8.445981698079368],["25",-8.4472913727629],["G",-8.447609923762501],["æŃ£",-8.448329104400731],["as",-8.449344927551204],["out",-8.450749688710118],["ĠWar",-8.451930706455979],["æĺİ",-8.454195969067822],["äºĮ",-8.456116453793577],["ç§ĳ",-8.456510344588972],["ä¼ļ",-8.45892189630829],["number",-8.462349714956225],["ney",-8.462768600051096],["æĺ¯åįĹæ¥µæ´²çļĦ",-8.46619840870572],["ge",-8.468461058175347],["Ġthere",-8.468737105719939],["Ġdo",-8.469204514245703],["Ġcall",-8.469557378455672],["23",-8.472002649040977],["ance",-8.475521555654474],["Ġno",-8.476309286856235],["Ġfound",-8.478385701316602],["ä½į",-8.478829593285006],["ç¾İåľĭ",-8.479181839190675],["ä»»",-8.485523003758594],["åħ§",-8.48597720830303],["è¦ģ",-8.487140304960619],["åĮĸ",-8.49027866145019],["åħ¨",-8.49222709295679],["til",-8.493305598663783],["åı¯ä»¥",-8.493311500128925],["æĽ¾",-8.494042730472994],["åĪ©",-8.495040846156002],["éĩį",-8.498091316328102],["èĥ½",-8.500352288124608],["åįĢ",-8.504946453353579],["Ġform",-8.506330618867823],["é¦Ļæ¸¯",-8.50655073210941],["est",-8.510494665231608],["åħī",-8.517109011873407],["ant",-8.517253203298822],["åıĪ",-8.519068924828362],["âĢĿãĢĤ",-8.519279844114122],["Ġsecond",-8.520421323491021],["gan",-8.525361118253258],["åľĭ",-8.525596381971294],["å¼ı",-8.526241423910037],["åĬł",-8.52800807429789],["Ġ3",-8.529802359812479],["åĬĽ",-8.529878780125411],["è¡Į",-8.5320491902695],["éĺ¿",-8.533010945938099],["æŃ¤",-8.534540589327289],["large",-8.537748271590331],["åİ¿",-8.539485954928306],["åį¡",-8.53988115534522],["æĿĳ",-8.540666312500852],["Ġgroup",-8.540694391857823],["æĪĲçĤº",-8.540789764504883],["ãĢįãĢĤ",-8.543219744118769],["æ¬¡",-8.545045935810686],["åĲĮ",-8.545200765863555],["å·²",-8.546902892544143],["äºĶ",-8.550884266543253],["åħ¶ä¸Ń",-8.553737845403887],["âĢĿ,",-8.559110044837189],["ist",-8.56176081748751],["ty",-8.563858745291393],["Ġstate",-8.564175600956215],["ç¥ŀ",-8.565414383788868],["èĻŁ",-8.566240211868847],["å¦Ĥ",-8.566796635321651],["Ġ195",-8.569299784440815],["up",-8.569572197497813],["ĠFor",-8.570705743752594],["Ġag",-8.571233337952759],["åħ¥",-8.573887241451503],["ä¸ľ",-8.5739073354752],["Ġfour",-8.575304677281832],["éĹ¨",-8.575873636459672],["çŁ³",-8.578345894682492],["æīĭ",-8.583425874765062],["ä¾Ĩ",-8.583966489168263],["if",-8.586727407366539],["Ġear",-8.589339478321225],["ä½¿",-8.589967362235015],["ent",-8.591176374495404],["though",-8.59169837806689],["ese",-8.591897649080344],["ar",-8.594506637893788],["et",-8.59539151372122],["ley",-8.597812739131694],["å¹³",-8.5997838850017],["order",-8.600128906379286],["ĠWorld",-8.60055481887396],["ince",-8.600909480673401],["Ġalb",-8.601047868143862],["is",-8.603959337460175],["former",-8.603990150131121],["Ġshow",-8.611356000951766],["ĠJohn",-8.615571145632217],["å¯º",-8.61567906223525],["åĽ½",-8.61745603349507],["éĽĨ",-8.617611796465706],["ice",-8.619862545187047],["çĶ°",-8.620137108052905],["åŀĭ",-8.621211414775907],["Ġbas",-8.621995284116275],["Ġrecord",-8.6231467694761],["åīĩ",-8.623504547931429],["ãĢį,",-8.623861579499284],["W",-8.625108432301825],["Ġstation",-8.62577735198122],["ĠRe",-8.626544203862125],["åį³",-8.626882796236988],["åĮº",-8.627954963153684],["åħ¬",-8.628472095855816],["people",-8.629154667717248],["æĿ±",-8.630563182884117],["ork",-8.631426649956282],["O",-8.631552258619582],["Ġ18",-8.63204265967731],["åĲĦ",-8.633321150459125],["æ´¾",-8.635591015094356],["ĠAl",-8.639935339933537],["å·¥ä½ľ",-8.642768780664133],["æĽ´",-8.64282294803999],["ç®¡çĲĨ",-8.643171546566846],["äº¦",-8.643850835796435],["èĩªå·±",-8.646668468528912],["é«Ķ",-8.649630584738556],["ä½ľ",-8.651245142487326],["old",-8.652245231289239],["H",-8.652923163672046],["çĻ½",-8.652929474750605],["èµ·",-8.654119560455005],["Ġend",-8.655849731239563],["å¿ĥ",-8.659594113066856],["Ġstud",-8.66229060780391],["ĠSchool",-8.666994530221704],["ĠGerman",-8.667276922682017],["Ġdis",-8.671861791202748],["ainst",-8.673986292565235],["ĠShe",-8.674069075617663],[".\"",-8.679237444180622],["ä¸Ģä¸ª",-8.68016409960764],["both",-8.681770957243106],["âĢĶ",-8.681946956428327],["ve",-8.68271224108969],["äºĭ",-8.68305750802005],["æľĢ",-8.692243611963338],["Ġso",-8.692933007972387],["ix",-8.693053283858063],["è¡¨ç¤º",-8.69321398132017],["æ±Ł",-8.695866159095779],["ĠEngl",-8.696411442270959],["193",-8.697593010632136],["return",-8.703023956033096],["æĬĬ",-8.705418819882565],["é¦¬",-8.705891849917892],["ä¸ª",-8.706194914329776],["Ġserv",-8.709160257145669],["Ġg",-8.710934630579144],["ĠOn",-8.711556733427978],["å¡Ķ",-8.716223023462831],["it",-8.71718828411661],["ĠMay",-8.718408161873075],["song",-8.721355107001706],["æľ¨",-8.721969155226592],["27",-8.723892160204716],["ĠNational",-8.727195734309237],["ä¹ĭä¸Ģ",-8.727254958334296],["zh",-8.728739862787869],["å°Ķ",-8.729162864910329],["Ġopen",-8.731324233920152],["may",-8.732018403011814],["than",-8.734660868827309],["ober",-8.734867587024503],["26",-8.7359114673243],["å®ļ",-8.73668334695699],["æł¼",-8.737365083375227],["ĠSouth",-8.738708357627145],["to",-8.741040298705919],["50",-8.743471997024091],["ally",-8.74371846617567],["åħĥ",-8.74634415854712],["releas",-8.747121167409249],["åĨĽ",-8.748486497201325],["æĿ¥",-8.748509077334063],["å°¼",-8.748874978827633],["è»į",-8.749429632681403],["éĢļ",-8.752003662742016],["çº¿",-8.754408945135843],["åı·",-8.75755879075466],["ĠJan",-8.757675666427374],["ä¸ŃçļĦ",-8.757852023581698],["åıĹ",-8.762559523519865],["40",-8.763183653693861],["ence",-8.764937321399195],["èĳĹ",-8.766074807691588],["æ¸ħ",-8.767318298843085],["cause",-8.767986608198287],["ory",-8.768256301598123],["ĠDe",-8.768292650474596],["Ġsever",-8.772172332383963],["the",-8.77227582699846],["x",-8.774960241369925],["own",-8.777190760180329],["28",-8.778838444447333],["æĪĳ",-8.779590876192607],["èĻķæĸ¼",-8.77991778181639],["Ġthi",-8.78037557463553],["ĠBrit",-8.780783319873422],["ç¾İåĽ½",-8.781875117643333],["ä½įäºİ",-8.782008659901827],["J",-8.782758784129266],["é¦ĸ",-8.784980449703289],["éĢ²è¡Į",-8.78734977130139],["ç·ļ",-8.788870422601246],["use",-8.789523566703629],["side",-8.789663623356537],["ĠOct",-8.789870094342003],["On",-8.79206637748193],["ril",-8.793922122705776],["rd",-8.794342190292628],["å¼Ģå§ĭ",-8.795494509593397],["member",-8.795851742428173],["ĠFe",-8.797784443833454],["ä¸»",-8.798335704483048],["é©¬",-8.798831633361566],["2000",-8.800860104873127],["å¥³",-8.803731807657003],["åĨį",-8.810883526278243],["ä¸Ńåľĭ",-8.81577147897435],["åħ©",-8.817493837508401],["ĠNov",-8.817510916018009],["æĸ¹",-8.817782493485836],["åħ±",-8.817868589537028],["çłĶç©¶",-8.818389522826038],["Ġmusic",-8.818449181824505],["service",-8.820227000715274],["led",-8.822412205034347],["ĠJun",-8.82458110113407],["åı¤",-8.825435335489257],["ine",-8.827365155734658],["éĸĭå§ĭ",-8.827693698130178],["by",-8.82829654916295],["Ġplace",-8.828606937409495],["ä¸»è¦ģ",-8.828659126460002],["åı£",-8.828875016573907],["60",-8.828947137747637],["å³¶",-8.829395199872828],["Ġ193",-8.829939340129371],["ĠV",-8.830858029597273],["éģİ",-8.835540990441416],["ok",-8.836797727209218],["éĢĻ",-8.838057163048765],["å¤§åŃ¸",-8.83966697410362],["ä¹ĭå¾Į",-8.839946709332676],["ç´Ħ",-8.840216618428103],["self",-8.842647447205746],["V",-8.843555565151945],["ĠAp",-8.844371364263914],["!",-8.84451792177602],["°",-8.845615033599909],["ĠBe",-8.84673094836922],["Ġwill",-8.847775705124278],["ĠNorth",-8.848859484367793],["ä¸ĢåĢĭ",-8.850989171227601],["åĽłçĤº",-8.851441154829994],["ĠCan",-8.852645732584177],["çĪ¾",-8.853538972885037],["ç¬¬ä¸Ģ",-8.856260691966042],["éĿ¢",-8.858671043860792],["ors",-8.858870782591872],["åŃĹ",-8.859512566744783],["ĠTo",-8.859586375626215],["eague",-8.860905668197532],["åı°çģ£",-8.864147204160373],["åħ¶ä»ĸ",-8.866889451450762],["åº§",-8.871092091917316],["çīĪ",-8.871517628259625],["December",-8.871945688599054],["Ġvari",-8.872894196980312],["ç«ĭ",-8.874403608800652],["Ġlong",-8.877189478716469],["åĽŀ",-8.877252725514142],["ä¸¤",-8.878000482307232],["ç§°",-8.878108207374726],["ĠMarch",-8.878594478598382],["same",-8.878818795565348],["åİ»",-8.879073452950394],["Ġperform",-8.880365231391057],["Ġstart",-8.880569834531197],["èĲ¬",-8.881593047229021],["å¾Ĺ",-8.881670837139401],["ãĢĭãĢģãĢĬ",-8.882152952578075],["each",-8.883060308295049],["government",-8.885287769977317],["ĠSept",-8.886545841562715],["ties",-8.886907810873197],["Ġsystem",-8.886988597406091],["ä¸ĸçķĮ",-8.888249774376595],["Ġal",-8.889381606756691],["il",-8.889684730828469],["Ġsupport",-8.890178898635025],["ä¾¿",-8.89202366842077],["Ġmain",-8.892861966312152],["éĥ¨åĪĨ",-8.893275394213287],["å®ĺ",-8.894170872581558],["red",-8.894404484588106],["æ³¢",-8.89519443513824],["ĠMan",-8.896310867228266],["area",-8.89716852266809],["ical",-8.897814563930462],["Ġback",-8.899157397654317],["æĪĲä¸º",-8.899236660674635],["åº¦",-8.90219563911678],["ä¸Ńå¿ĥ",-8.905038096382267],["ãĢĭ,",-8.905883925257974],["åħµ",-8.906182651759002],["æµģ",-8.907988370262668],["Ġpublish",-8.911801288326968],["å¸ĥ",-8.912189104272542],["gain",-8.912832962027474],["Ġfamil",-8.913358099851987],["ten",-8.913651453460918],["çĦ¡",-8.913935748011339],["Ġoriginal",-8.91426247723033],["è»Ĭ",-8.914427072564536],["Ġtake",-8.915403678316302],["ĠCount",-8.916654964654068],["result",-8.91748084044277],["U",-8.91820996257183],["Ġwar",-8.918215843520297],["He",-8.919807276020574],["29",-8.921919361279407],["Ġrun",-8.923314350871795],["ĠAs",-8.924272601211849],["Ġ10",-8.927649689726419],["åŃ¸",-8.928451044331005],["Ġseri",-8.928753922107141],["Ġnear",-8.92888412809289],["åħŃ",-8.92988081851054],["åħ«",-8.931135407210933],["Ġdesign",-8.931443871937196],["è§Ĵ",-8.93451461396118],["åĲĪ",-8.935021409448298],["how",-8.935447876574425],["[",-8.936499703597452],["å±Ģ",-8.939287653477512],["Ġsub",-8.939486985101745],["èĬ±",-8.940706150826719],["çĽ¸",-8.941079906771627],["uar",-8.941390303829895],["è¿Ļ",-8.941559303370127],["è¿Ľè¡Į",-8.9422893862553],["]",-8.942344824501678],["Ġcare",-8.943110623810565],["club",-8.944424255317596],["ury",-8.946514842326366],["æīĵ",-8.946725990637074],["les",-8.951688513317647],["bru",-8.951892614452477],["Ġen",-8.952448607967398],["remain",-8.95465774074051],["éģĬæĪ²",-8.958198588389516],["(),",-8.958538647283103],["left",-8.959791140290033],["round",-8.960146232815582],["æŃ¦",-8.960525737933047],["è¿ĩ",-8.96198954501829],["site",-8.96261341581701],["Ġappear",-8.963247347793388],["ä¹ĭåĲİ",-8.963812681927383],["çķ¶",-8.964129680638635],["Ġjoin",-8.965721515676162],["æıĲä¾Ľ",-8.966119453842413],["å¼µ",-8.96618414261263],["ĠAugust",-8.966971539545813],["ship",-8.967660280580011],["åı²",-8.9690592887885],["å·Ŀ",-8.969551890696966],["æ°ı",-8.970225082396162],["åķĨ",-8.970969580354932],["çıŃ",-8.971270663789188],["Ġproduc",-8.97127895428373],["ĠHow",-8.972698015942413],["ial",-8.972719250372196],["éģĶ",-8.975935450175314],["æŃ£å¼ı",-8.976772765086844],["ĠNo",-8.978907406849991],["ĠRuss",-8.981230578787837],["at",-8.981446827610297],["low",-8.982099962520298],["Ġreport",-8.982656288142863],["æĶ¿",-8.983600453644984],["Ġ15",-8.984174280148011],["ä¸ĸ",-8.98539023018302],["éĽ»å½±",-8.985466647748854],["Ġcon",-8.986030868977572],["çĻ¼",-8.987034698417133],["æ£®",-8.987313799097214],["å®ĥ",-8.987908515068474],["Ġ190",-8.988969097911252],["å»º",-8.990017585392344],["å¼Ģ",-8.990512350451077],["Ġband",-8.991637240947917],["åĿĩ",-8.991659521208062],["åĲī",-8.99247664273238],["æĶ¹",-8.993593096974564],["ated",-8.995643352357348],["cent",-8.995954864978886],["come",-8.9968617843774],["çĶ±æĸ¼",-8.996992051355033],["ç¸£",-8.997951089769703],["è¾¾",-8.999443256752514],["èº«",-8.999653572547913],["åĳ½åĲį",-8.999777217094476],["ĠKing",-9.000162077839791],["æĻ®",-9.000331206624747],["Ġline",-9.001231975637111],["âĢĻ",-9.003815777158845],["æĸĩåĮĸ",-9.004253730388754],["now",-9.00674276648743],["00",-9.007039241233656],["çľģ",-9.007144942336954],["ĠHis",-9.007852298536443],["ä»£",-9.00875697201931],["ada",-9.012454484187495],["Ġfe",-9.012785502884356],["æ®µ",-9.013192690439],["éĸĭ",-9.013806382564963],["ä»Ĭ",-9.01389149045186],["Ġhome",-9.01498459456884],["åĢĭ",-9.015429687824396],["çīĮ",-9.015860698404754],["è¿ĺ",-9.016578692356276],["åĽ½å®¶",-9.01931793179472],["ç¾ħ",-9.019829085619364],["åŁº",-9.02062366570782],["æ¸¸æĪı",-9.02157943671211],["æ©Ł",-9.023727890500126],["de",-9.024014249243695],["style",-9.024690788636462],["mall",-9.02613166498196],["åĪ¶",-9.0265764238921],["Ġbr",-9.02719280773383],["Ġ16",-9.028929829592297],["ç½Ĺ",-9.029555471058185],["ĠArm",-9.029977338302793],["80",-9.033327973158691],["Ġmu",-9.03505032156091],["ç¬¬äºĮ",-9.035149510154543],["éĩİ",-9.03550142795145],["éĻ¢",-9.035814025857713],["ç¸½",-9.036916855514468],["ĠCity",-9.036929807576406],["ä¼Ĭ",-9.03758562539916],["æĽ²",-9.038483871639006],["Ġlike",-9.04147599876103],["ä»¤",-9.042824125756631],["åŃ¦",-9.042886510020685],["çį²å¾Ĺ",-9.042990894316164],["na",-9.043284434272795],["åł´",-9.045396134981411],["X",-9.048948190218272],["along",-9.049461573140595],["æľŁ",-9.049622926270771],["London",-9.050707387593242],["ĠAfter",-9.050763014458465],["å£«",-9.051565547253205],["ĠAir",-9.05248242963948],["Ġhead",-9.054611674472303],["Ġfinal",-9.056004112093358],["title",-9.057571107514551],["did",-9.058454763798425],["æĺŁ",-9.058898930422734],["ne",-9.060659522885008],["æĵĶä»»",-9.06197893832963],["won",-9.063465666664978],["Ġlaw",-9.064032835532233],["ner",-9.064765258261335],["Ġsee",-9.06771923185573],["ä¹Łæĺ¯",-9.067888495347862],["ism",-9.069600751331077],["change",-9.07010024479652],["Ġreceiv",-9.070606618051247],["ie",-9.070782082623444],["å¤§åŃ¦",-9.072252335298248],["äºŀ",-9.072935824327423],["ãĢĭ(",-9.073273749038355],["last",-9.073888570879769],["ä»£è¡¨",-9.074854150580084],["æģ©",-9.078714684120458],["Ġ192",-9.079438369600611],["åĳ¨",-9.079484064789604],["ä¸Ķ",-9.08098170959468],["Ġmajor",-9.081536611627795],["100",-9.08165934504702],["é»ŀ",-9.083782495765533],["åĪĻ",-9.0846845562609],["90",-9.08639660677221],["give",-9.087677444706715],["ĠWest",-9.08771010770486],["Ġpro",-9.08839897339492],["èĭ±åľĭ",-9.089154866323874],["æīĢæľī",-9.090890146208473],["ä½ľä¸º",-9.091109655570822],["due",-9.092401244462176],["æīį",-9.092602243085729],["çīĩ",-9.093027445299777],["building",-9.09511938429096],["Ġlocal",-9.095154563623607],["ä¸ĩ",-9.0963748126353],["ä½ľåĵģ",-9.096814883238956],["role",-9.097136089674256],["Ġpresent",-9.09718077109563],["åĨ°å·Ŀ",-9.097203245020586],["æķĻ",-9.09952557350528],["ä¸ĥ",-9.100947058835132],["Ġperiod",-9.102307500834854],["ate",-9.103093498638604],["Ġ17",-9.1031594159156],["éĤĦ",-9.104990502645192],["æ°ĳ",-9.105835309542758],["ä¿¡",-9.106637736376408],["hose",-9.107186293298112],["ĠJul",-9.1074767247811],["å¤«",-9.107823571084843],["å·¥",-9.107842301563936],["ur",-9.111481039756503],["ä¸Ńå¤®",-9.111746807917433],["äºĭä»¶",-9.11481082160245],["æľª",-9.115824117930556],["è½¦",-9.117280015890053],["éľĢè¦ģ",-9.118785514449897],["Ĺ",-9.118814555701436],["j",-9.119747553511209],["uilt",-9.11977033805776],["è¯´",-9.120428804841191],["å½ĵ",-9.12087659811458],["ety",-9.121227381850876],["Ġpublic",-9.12172800974902],["steroid",-9.122859929290083],["ard",-9.12419623796826],["éĢļè¿ĩ",-9.124370257883957],["ford",-9.12453411095489],["åıĳ",-9.12499276837056],["locat",-9.12590153761522],["ĠHigh",-9.126199505137766],["é»ĳ",-9.12667834991999],["Ġlife",-9.1281439286247],["ä¸įåĲĮ",-9.129852995005296],["ta",-9.13031321254664],["ĠLa",-9.13051814925866],["èĹı",-9.131676732292306],["åĻ¨",-9.133091894333743],["æĹł",-9.133388097685208],["me",-9.134079956275889],["go",-9.136211566675424],["åºľ",-9.137853941626275],["Ġpoint",-9.1383547623452],["å¹´ä»£",-9.138991691499466],["70",-9.139685360223996],["id",-9.14108757777652],["ä¿®",-9.141850690330775],["ä»ĸåĢĳ",-9.142342967347362],["å¥½",-9.142490575281409],["çĿĢ",-9.143765320003023],["ä¸Ĭæµ·",-9.146390672833268],["clude",-9.146419878546736],["-{",-9.147119442966869],["Ġarm",-9.149816256466952],["31",-9.150469491787955],["æĮĩ",-9.15062105756586],["Ġco",-9.151326797396443],["ĠMe",-9.15156808459676],["çķ¶æĻĤ",-9.152235521942488],["members",-9.152437842675454],["èĭ±",-9.1538875103988],["çĵ¦",-9.156700754720562],["ĠPart",-9.157160389382064],["éķĩ",-9.157532796708134],["éĸĢ",-9.158163008453412],["å¸¸",-9.158388459217315],["ness",-9.158707384329857],["Ġ191",-9.158759512043702],["åĪĹ",-9.15973018686826],["æ¡Ī",-9.160265953352445],["Ġnorth",-9.160618425059234],["èī²",-9.16149282794651],["èĢģ",-9.162298268988526],["Ġcontinu",-9.162540325549152],["Ġmov",-9.162858153105052],["èİ·å¾Ĺ",-9.16418225586037],["Ġset",-9.164669505394732],["ĠBo",-9.16467385098223],["éłŃ",-9.165181358746622],["æ²Ĵæľī",-9.165715818325],["There",-9.165980267179314],["éĿŀ",-9.166949886641495],["ç¤¾",-9.16848788896294],["ä½ľçĤº",-9.168639659477725],["aving",-9.169580989464688],["ä»ĸä»¬",-9.169633473682158],["é¾Ļ",-9.170267262455024],["BBC",-9.17187028402256],["500",-9.17214147322572],["aid",-9.17223777833987],["è®ĵ",-9.173552039425251],["iz",-9.174603457632337],["ts",-9.17502085524958],["ĠAn",-9.17592991270017],["Ġshort",-9.176957712757623],["45",-9.178391115782714],["dom",-9.178880111561142],["Ġcharacter",-9.179409475332765],["åŀĭçĶµåĬĽæľºè½¦",-9.179555646026373],["è¡Ĺ",-9.181380098976618],["Ġoff",-9.181423893022387],["Ġcreat",-9.18184406557561],["ite",-9.182041529114692],["ro",-9.18405629764149],["Ġvilla",-9.18504130079857],["level",-9.185084015676376],["å®Ĺ",-9.18544219135824],["å¤´",-9.18641697274954],["æķ¸",-9.187400202713375],["ä¸ĢäºĽ",-9.1876723349179],["elevision",-9.1882485939691],["player",-9.188740288993102],["å¤Ħ",-9.189006845649647],["éŁ³",-9.189457269652426],["å®ĮæĪĲ",-9.190063145673882],["äº¤",-9.190268163332684],["çī©",-9.19164999583208],["éļĬ",-9.191799994417345],["$",-9.191846369206312],["Ġper",-9.193048092461371],["çĶ±äºİ",-9.193388635044489],["åħĪ",-9.194073750058156],["ol",-9.19446290603189],["Ġestablish",-9.19495079405153],["east",-9.195239035879617],["ä½Ĩæĺ¯",-9.195767668792405],["ang",-9.195915061073247],["éĽ·",-9.1959856482904],["ç³»",-9.197426562357489],["Z",-9.200357899932246],["death",-9.20068842712082],["æĦĽ",-9.20111456340417],["åįĬ",-9.202123918353216],["ĠChin",-9.20238501959351],["åī¯",-9.202511449246384],["ations",-9.202921974116984],["åıĹåĪ°",-9.204095847259731],["Ġpo",-9.2041368509265],["çģ«",-9.20477428128996],["te",-9.2051170295282],["ä¹Ŀ",-9.205356247274068],["ra",-9.205786496006963],["åĲĮå¹´",-9.20597986132426],["Ġcount",-9.206166805754354],["ç»ı",-9.206708942561622],["Ġact",-9.20678041936617],["football",-9.20840349459908],["æĪ°",-9.209577227717858],["202",-9.212708505307688],["å·¥ç¨ĭ",-9.21340950708318],["held",-9.213891045459436],["Ġgeneral",-9.214619646839408],["Ġright",-9.215104808818529],["æİ¥",-9.216582092496314],["Ġair",-9.217446304132755],["è¿ĳ",-9.217835709503882],["os",-9.21785592178746],["çįİ",-9.21936405701528],["éĩı",-9.219537015632444],["Ġnational",-9.219909108416616],["ä»ĸçļĦ",-9.220366810473866],["Ġmin",-9.220858300661464],["åĮĹäº¬",-9.224806208402232],["åģļ",-9.225106919706304],["reach",-9.225777985265625],["Australia",-9.226855866891746],["ning",-9.226940747880132],["da",-9.2274977485335],["èªª",-9.228295363526886],["ought",-9.22996830050333],["åıª",-9.232330833064225],["æĪĲç«ĭ",-9.233121027918775],["å¼ł",-9.23343759916461],["192",-9.233585980483504],["å±¬æĸ¼",-9.23398634699124],["ham",-9.23500140874281],["ä½ĵ",-9.235715012436229],["æĪĲåĬŁ",-9.236888965237515],["çľŁ",-9.237403380012566],["world",-9.239810342089037],["Y",-9.240033671571528],["ãĢĭãĢĤ",-9.240764107552849],["å¤ª",-9.240885824872876],["Ġpass",-9.240952200445513],["time",-9.24126660512583],["ern",-9.241282582432042],["åĥı",-9.242118868729786],["ç¨±",-9.24464326225636],["population",-9.244888821984414],["Ġjust",-9.247406001898725],["æ²¡æľī",-9.248425988929917],["issue",-9.248470368366943],["èĻķ",-9.2487051694258],["ement",-9.24924113854923],["éĻ³",-9.249802063939802],["ç©º",-9.251331306772345],["ĠAt",-9.252137439636329],["Ġeven",-9.252931098953294],["æ¸¯",-9.253267960788104],["ĠArt",-9.254787020316062],["æľĿ",-9.255397487454877],["current",-9.255554985166338],["éĢ£",-9.256446892907118],["ĠLo",-9.256627544810556],["ĠII",-9.256745026823484],["Ġpower",-9.257746093071724],["hat",-9.259163922479637],["ring",-9.260579581916652],["çļĦä¸Ģéĥ¨åĪĨ",-9.261839733147085],["George",-9.262250749930104],["our",-9.263242784994254],["èªįçĤº",-9.264029974258024],["èı¯",-9.264316523089366],["mong",-9.26472677471219],["èĪ¹",-9.264773648349722],["Ġcent",-9.265320934272443],["Ġclass",-9.265628388522329],["£",-9.266383719841803],["ĠUS",-9.26681885361062],["Ġhistor",-9.267082051998242],["eries",-9.267286918222483],["Ã©",-9.267543891507504],["çĲĥ",-9.267545068142836],["éĢ²",-9.26879612267971],["father",-9.269254477440306],["Ġbook",-9.27123581962248],["ĠEast",-9.271749712737668],["Ġconsider",-9.272447217527317],["ents",-9.272537934881342],["åı¯èĥ½",-9.27404401777273],["æīĢä»¥",-9.274866162082583],["ago",-9.27505975608984],["Ġnon",-9.276577952071072],["çº³",-9.278522909405034],["æł¡",-9.278830172347774],["æĥħ",-9.27939082961076],["è§£",-9.279871296335044],["wards",-9.280556600472508],["ä¹¡",-9.280570542460495],["ç»Ļ",-9.281480806290643],["ĠPark",-9.28251047703391],["åıį",-9.28262024700132],["å®¤",-9.282668376870353],["city",-9.28336872634171],["ç³»çµ±",-9.284269167481485],["æŃĮæĽ²",-9.284431751718556],["ad",-9.284689584830552],["help",-9.28541739064666],["Ġdirect",-9.28770176188053],["æĪ¿",-9.288791482288143],["ĠLe",-9.289772630721902],["å°Īè¼¯",-9.29036138255567],["æĿ¿",-9.293019264979192],["ä¹¦",-9.293708238161186],["den",-9.294934971254138],["ä¸įæĺİ",-9.29558272562899],["æ¢ħ",-9.295866117202044],["Ġ12",-9.29632320349556],["ure",-9.298717502500256],["still",-9.300598577572304],["çĽ®åīį",-9.301315687950382],["æŃ»",-9.302306503026172],["æ²Ļ",-9.302562072540717],["æľĢå¾Į",-9.302863248299236],["éĹ´",-9.30294985978304],["èĭ¥",-9.30299866253384],["official",-9.303303286630168],["election",-9.303415511309254],["ç´ļ",-9.305904353406582],["ompany",-9.30830629792504],["æķĻèĤ²",-9.3083844853244],["ston",-9.308459731543309],["ç¦ı",-9.308601746793276],["ler",-9.310671687935894],["éĤ£",-9.31169938218516],["Ġ13",-9.312085293080203],["ä½Ľ",-9.312372688895303],["ma",-9.31252130802478],["æ¯ı",-9.313488067850752],["version",-9.31392777601864],["ina",-9.315308159348524],["ned",-9.318175380615934],["åį»",-9.318583191830314],["åıªæľī",-9.3187727808467],["é¢¨",-9.319592488965082],["çĽ´",-9.320150118208208],["æĶ¯æĮģ",-9.32053516525448],["ĠAll",-9.321972513297837],["åĲĮæĻĤ",-9.322013251881115],["ward",-9.322312676069236],["è³½",-9.32437854304006],["Ġdifferent",-9.32484974822416],["åŁİå¸Ĥ",-9.325664055870432],["ces",-9.326089069675197],["æŃ²",-9.326642499682537],["åľ°åĮº",-9.327169573044408],["ãĢĤâĢĿ",-9.32730147014113],["great",-9.327333949171637],["è¦ģæ±Ĥ",-9.328093787518869],["çº¦",-9.32833358293152],["ĳ",-9.328824894634186],["48",-9.328996086659084],["åľĭéļĽ",-9.329235826400446],["ä»į",-9.332647112938588],["Ġdu",-9.332885781909738],["ĠNe",-9.333169936828115],["æĦı",-9.333690698612214],["åįİ",-9.333923923144631],["BN",-9.334185797034856],["ä¸ĬçļĦ",-9.334422536080812],["è®¤ä¸º",-9.334628318258776],["éĺŁ",-9.336423046106637],["æ³°",-9.337736683757957],["ave",-9.340518058078722],["éĿĴ",-9.34130838529623],["æĽ¸",-9.34163096768095],["Ġ14",-9.342096088611306],["ç´į",-9.34266182227518],["children",-9.344621097082545],["æľº",-9.345600458846956],["æŃĮ",-9.345826850751031],["ssociation",-9.346132841808307],["åł±",-9.34675119536923],["âĢĶâĢĶ",-9.348181172145988],["Ġprim",-9.348403268862588],["Ġhouse",-9.350136523528224],["com",-9.350706361439045],["Ġside",-9.350867353789964],["éĽĻ",-9.351475048689624],["ĠFren",-9.351640835683495],["åľ°åįĢ",-9.353035885094997],["èĩªå·±çļĦ",-9.35363974112307],["éĽ»",-9.354183046348478],["Ġship",-9.354304596418627],["æ¬Ĭ",-9.354896612904298],["ç¶ĵ",-9.355175178408494],["ĠZ",-9.356139805096124],["Ġfull",-9.357074940435949],["~",-9.357875020663917],["å°ģ",-9.358163754119172],["çİĩ",-9.358924253396925],["åĲĪä½ľ",-9.360369497609454],["çĦ¶èĢĮ",-9.360375254063769],["pp",-9.36212059753257],["å¾Ī",-9.362818273333346],["ĠMin",-9.362886017273876],["Ġdevelop",-9.364459437685484],["ĠCo",-9.364925376780366],["Ġlate",-9.365872208575992],["ĠSan",-9.366462351530336],["ear",-9.36817027402023],["éĥ¡",-9.368765282842556],["çľĭ",-9.368988075934652],["å¾Ģ",-9.36931498508731],["èĩºçģ£",-9.36954719839547],["åĬłåħ¥",-9.370917038148225],["çĤ¹",-9.37153726261225],["describ",-9.372012603792433],["#",-9.37278953746416],["Ġdown",-9.37308022695034],["éĿŀå¸¸",-9.37364637704824],["Ġtown",-9.373942217169136],["è¿Ľ",-9.37430184336566],["very",-9.375112140769264],["åĵĪ",-9.375419739482473],["ians",-9.37561207599138],["èĦĤé¯ī",-9.37640954751533],["å½¢",-9.376805680931016],["æķħ",-9.376979748329848],["æŃ¤å¤ĸ",-9.377402830643764],["king",-9.378648811704554],["California",-9.378818190669952],["Ġk",-9.379032406909973],["æĪĺ",-9.379720448354076],["æĻĤéĸĵ",-9.380034380090514],["æĥ³",-9.380704045806088],["Ġcar",-9.38090286589371],["kill",-9.38203288381941],["åīįå¾Ģ",-9.382473084339368],["action",-9.38267582498889],["EF",-9.383628262063883],["å¥ĩ",-9.386798930648377],["å³°",-9.38699283102768],["åįĩ",-9.387180668599942],["å¸Ī",-9.387783400295636],["Ġpolic",-9.388209845739356],["ĠCouncil",-9.388595438131864],["Ġim",-9.389269831336527],["went",-9.389309049355864],["åĽłä¸º",-9.389441738895451],["çĻ¼çı¾",-9.389512698203848],["åįģ",-9.3902437780736],["æĿ¾",-9.390260937545415],["ãĢį(",-9.391564494631096],["language",-9.391734059771224],["åĪĹè½¦",-9.39205978853976],["Ġmen",-9.392922117535909],["cluded",-9.393061376584711],["Ġcommon",-9.393520930147886],["Ġimport",-9.393867942903858],["å®£å¸ĥ",-9.39402908766836],["Ġterm",-9.394085274898869],["æ²»",-9.395135765423875],["Ġmatch",-9.395137941455518],["é»ĥ",-9.395189217233376],["æĶ¿æ²»",-9.39569698027004],["åº·",-9.396152240132077],["make",-9.396840645452809],["éĻ¤",-9.397122125885977],["é¦Ļ",-9.39828102184735],["attack",-9.399201671313932],["Ġpre",-9.39981397056162],["Ġprogram",-9.399893161877824],["ĠSe",-9.400231083510732],["Ġlead",-9.40026561002404],["æ´Ľ",-9.400861630533036],["Ġbest",-9.40147386328773],["äºļ",-9.401884278678308],["¬",-9.402136189123432],["é¦ĸæ¬¡",-9.402501094992552],["å§Ĩ",-9.402693913878654],["Ġson",-9.403270017820164],["Ġannounc",-9.403418478434554],["Ġcover",-9.404295835387211],["Award",-9.40476784174462],["åĲİæĿ¥",-9.405287348834957],["æĻ¯",-9.405475610987647],["David",-9.406970340258098],["ĠGeneral",-9.40698581582568],["çĻ¾",-9.40793147106618],["ĠIr",-9.408516773329984],["èĩªçĶ±",-9.408843790885772],["æīĺ",-9.409065172154348],["éŁ³æ¨Ĥ",-9.410405701194756],["Ġwater",-9.411523314308283],["åľº",-9.412308016777988],["åĪĿ",-9.413579476877462],["èİ«",-9.41412001228798],["ç®¡",-9.414556558813512],["ĠHouse",-9.415703489158116],["éĻ¤äºĨ",-9.41607592298136],["é¾į",-9.417231864294576],["æĶ¶",-9.41784498742144],["é£İ",-9.41786462781918],["am",-9.418281156332696],["åĲĮæĹ¶",-9.418432286737575],["ãĥ»",-9.420528484790172],["æĺ¥",-9.420533519777296],["tic",-9.421383543487632],["åħ¬åĪĨ",-9.422955442198962],["ĠJo",-9.42387745772236],["³",-9.424160153735686],["35",-9.4246307751739],["åľĭå®¶",-9.425056010733533],["revious",-9.425110748117229],["çµ¦",-9.42537991974092],["åıĸ",-9.426703250671505],["Ġtrack",-9.426813663084753],["çĻ»",-9.42771750347482],["çķĮ",-9.42781908402554],["è½ī",-9.42782428964613],["ong",-9.428347134755349],["å±ħ",-9.429030679445452],["è¶ħ",-9.429332605287694],["ĠPort",-9.431490556805112],["case",-9.431727482097692],["ter",-9.432198533553992],["align",-9.43224219303163],["Ġart",-9.432345192586236],["cy",-9.43376561685704],["ķ",-9.433884319303004],["æĹı",-9.434830393420064],["ç¬¬ä¸ī",-9.435679457573883],["ä¸ĢèĪ¬",-9.435967602702192],["Ġmilitar",-9.436011411893524],["æŀ¶",-9.4378052207279],["æ·±",-9.43807063531623],["district",-9.438212931009083],["Ģ§",-9.438343211346456],["Ġ11",-9.43892042146145],["æķ°",-9.439220735198326],["ĠColleg",-9.44028832491374],["åħ¼",-9.440919290544754],["+",-9.44104595321635],["ied",-9.441093359923729],["æĽ¼",-9.441226886015716],["mix",-9.441368681691316],["Ġevery",-9.442171833402083],["éĥ½æĺ¯",-9.442608681753391],["è§Ĵèī²",-9.443123273921554],["èªŀ",-9.443185942313242],["Ġcame",-9.444502577786588],["abilit",-9.44452716246751],["With",-9.444652020905773],["»",-9.445961493364964],["åĩºçı¾",-9.44625350941556],["ments",-9.446532207174672],["ĠHer",-9.448319505154284],["ĠOr",-9.448550397920329],["éĩįæĸ°",-9.448673364080332],["ä½İ",-9.448883056210732],["ä¸Ńèı¯æ°ĳåľĭ",-9.449278173921034],["Ġmanag",-9.45000492434458],["young",-9.450061512229585],["æĸ¹å¼ı",-9.451323032784648],["éĽĸçĦ¶",-9.452527626041451],["éĢĻäºĽ",-9.4525449138042],["ä¾ĭå¦Ĥ",-9.452616287594108],["ä¿Ŀ",-9.454070341834498],["Ġ189",-9.454258819474608],["å¤ı",-9.455428314217668],["Ġposition",-9.455508966123483],["ĠRiver",-9.456443230213832],["Robert",-9.457085259708863],["ritten",-9.459858190562976],["çĲĨ",-9.460478130538736],["ana",-9.460841194288824],["èµ°",-9.460927534160438],["Ġplan",-9.46111864250584],["çĶµå½±",-9.461225693637502],["éĢ²åħ¥",-9.461264814819218],["ling",-9.461593958306384],["åıĤåĬł",-9.461670432814806],["Ġfree",-9.462411682091952],["190",-9.462428929939126],["åŃ£",-9.462616706890948],["åłĤ",-9.463084605130932],["ries",-9.463244907481176],["æİ§åĪ¶",-9.464831598890752],["å¾Įä¾Ĩ",-9.466040656839244],["è¯¥å¯º",-9.46641690141761],["Ġlive",-9.46686299842835],["Ġse",-9.468591497934884],["Ġbusiness",-9.468930977979344],["çµĦ",-9.470331412023407],["å±¬",-9.470497206068757],["æ¯į",-9.470828420499206],["defeat",-9.471620350980825],["Ġoperat",-9.47238006820297],["¼",-9.47239010352552],["ĠPress",-9.472881618772153],["å·¦",-9.473222208904232],["åįĥ",-9.473653025962795],["Re",-9.473786712417663],["¢",-9.474066642252753],["Ġyou",-9.474220887397506],["ī",-9.47457707757653],["allow",-9.476037618533544],["æİĪ",-9.476184847862982],["mission",-9.477082332179531],["å¿Ĺ",-9.47793379658511],["finish",-9.478977937878431],["ç´¢",-9.47936230839209],["Ġsouth",-9.479675498954336],["Island",-9.479959276630757],["ĠHall",-9.480657982207983],["ç¯ĢçĽ®",-9.48066377735324],["±",-9.480964777095965],["ç»Ħç»ĩ",-9.482053677380785],["Ġturn",-9.48223472860257],["Ġmy",-9.483039845552538],["è¨Ģ",-9.48323453482128],["å®Ī",-9.483375438010428],["åı¦å¤ĸ",-9.484082359697595],["å®¢",-9.484425389481554],["ife",-9.484650044172875],["release",-9.484720510851226],["political",-9.484954367067791],["say",-9.485672174346377],["å¾ĹåĪ°",-9.486390383516804],["Ġperson",-9.486391090043522],["æľŁéĸĵ",-9.486706342039916],["å¸Į",-9.487806791348786],["æĴŃåĩº",-9.487965814238256],["no",-9.489684824294551],["æĶ¾",-9.489948151845075],["åħ·æľī",-9.49078703324757],["million",-9.490804488201212],["Ġrepresent",-9.492769568416302],["hampionship",-9.493583776411986],["è¿ĻäºĽ",-9.4941104818752],["Ġlist",-9.495838280114032],["é«Ķç³»",-9.49593933587722],["åĵģ",-9.496362188702031],["Ġwin",-9.496727477171111],["èģĸ",-9.49737668178732],["ä¸Ģèµ·",-9.497630173070036],["Ľ",-9.499061305077667],["ful",-9.499812199665143],["ey",-9.500443531819585],["è£½ä½ľ",-9.50093075438675],["Ġ30",-9.501184490356762],["ç³»åĪĹ",-9.501545033431096],["Ġprocess",-9.501566847840248],["åºĹ",-9.501667997296964],["è¶Ĭ",-9.50397360434568],["è¿ª",-9.50405141326037],["Ġmak",-9.505339019342838],["å°±æĺ¯",-9.50551934289052],["å¥ĸ",-9.505818373955012],["marri",-9.506431726874544],["æ³ķåĽ½",-9.506477247942405],["ĠNa",-9.50651557674717],["çĤºäºĨ",-9.506523612885742],["éĩĩçĶ¨",-9.507797387968438],["çĶ²",-9.508438049521466],["James",-9.509498732599614],["ĠMo",-9.50988492523846],["åĭĴ",-9.510143571772048],["coach",-9.511436316990416],["European",-9.511504963953607],["Ķ",-9.512095232074278],["organization",-9.512451178831398],["è®©",-9.5128033943316],["æĭħä»»",-9.513132408619787],["çļ®",-9.513171777876812],["è½¬",-9.51392811343188],["å®«",-9.514555421819937],["ł",-9.51614405126104],["ĠEl",-9.517195636492064],["Ġproject",-9.518922521234495],["è¿Ľåħ¥",-9.519597848061746],["ĠJe",-9.51976937352823],["Ġhand",-9.520001638561562],["...",-9.520271621546666],["æ°£",-9.520738206822363],["åħ±åĲĮ",-9.52120298719409],["sh",-9.521741882078068],["ĠInternational",-9.52194564356266],["all",-9.522037983944823],["æĢ»",-9.522171956878909],["Ġpost",-9.52233760373313],["æĸ¹éĿ¢",-9.522880139483489],["æĶ¯",-9.524092909066834],["ģ",-9.524208466211729],["æł¹",-9.524315223469806],["åı¯éģĶ",-9.524591175045458],["æł¹æĵļ",-9.52581238498708],["çİ©å®¶",-9.526241063813456],["rote",-9.526463077375825],["but",-9.526500482627489],["Ħ",-9.527402983625771],["æ±ī",-9.527515248697767],["ĠStreet",-9.528572454551451],["ç´ħ",-9.528919950611826],["Ġclose",-9.52898624354944],["interest",-9.529508532269052],["ĠX",-9.530332061882536],["æµ·æĭĶé«ĺåº¦",-9.530333370787709],["æ±ºå®ļ",-9.530367522540253],["im",-9.530781294186305],["Ī",-9.53084404499936],["çļĦäºº",-9.530918604580066],["è¯Ń",-9.530942071692884],["çģ£",-9.531368447286091],["æ®¿",-9.532096020663335],["dy",-9.532334386986337],["é»Ħ",-9.53256756411152],["Ġregion",-9.532885612051022],["º",-9.53316481582328],["ä¼¯",-9.53463611539856],["v",-9.535008367825498],["75",-9.536128278204036],["Ġtest",-9.53613143653086],["Ń",-9.536137636665316],["æıĲ",-9.53625775585011],["event",-9.536705621564025],["thing",-9.53671437345236],["ä¸¦ä¸Ķ",-9.537043337178009],["Ġoffic",-9.537504338974347],["èĺŃ",-9.540267462579996],["ä»ĸåľ¨",-9.54231011231415],["çĻ¼è¡Į",-9.542500183231738],["ä¹ĭåīį",-9.543462690129855],["involv",-9.54434640262478],["Ġbase",-9.54526460556199],["åħ¨åĽ½",-9.545727604188883],["Ġla",-9.546116195163991],["Ĩ",-9.546138871792447],["co",-9.546157465019316],["ĠDis",-9.546161294801998],["ĠOne",-9.546488948556942],["Ġtop",-9.546656801209544],["Ġland",-9.547106385730086],["ollege",-9.54923635941665],["éĢļå¸¸",-9.550274485206742],["port",-9.551267679861851],["çĤºè¼»é°ŃéŃļç¶±",-9.55166096412059],["çĶļèĩ³",-9.553006418089495],["Ġdiscover",-9.553773922750011],["un",-9.55396501173063],["æ¥¼",-9.55398409442844],["(,)",-9.55414662553407],["ç³»ç»Ł",-9.554520442338893],["åı¸",-9.555135303371564],["less",-9.555276878586309],["çĶŁæ´»ç¿Ĵæ",-9.555286695922474],["ç½®",-9.555546228737413],["è¡¨",-9.555674247731408],["çĹħ",-9.556128768539873],["ĠAct",-9.556344261932033],["ountry",-9.556638040549124],["åľŁ",-9.556836295560409],["æ´»åĭķ",-9.557209855200576],["åĵ¡",-9.557404947808838],["åįļ",-9.558576062411824],["Ġstar",-9.559025327585756],["ĩ",-9.559319073112707],["çīĪæľ¬",-9.559347368780047],["¹",-9.55939439987178],["ez",-9.559941167497094],["å¦Ĥæŀľ",-9.560841708978783],["Ġ25",-9.561112144362216],["development",-9.561833292633231],["imilar",-9.562503606594044],["éĢłæĪĲ",-9.563946307569555],["¯",-9.56434940038674],["data",-9.564730980458732],["After",-9.565880744393771],["hicken",-9.567365288011406],["Ġcontrol",-9.5677280350033],["åı³",-9.569293331691265],["President",-9.57162564581099],["section",-9.573268587117834],["ttempt",-9.57354504086743],["æ²¹",-9.573585862334555],["æ¬¾",-9.574651642025948],["ãĢįãĢģãĢĮ",-9.57575917041104],["alf",-9.576014969734288],["ĠMa",-9.576517955005428],["nex",-9.576884276903506],["å»ºç«ĭ",-9.57697991193534],["éĽħ",-9.5770580947224],["ample",-9.577160083993796],["ĠPhil",-9.57749453394446],["34",-9.578141103488388],["åį°åº¦",-9.578517470283863],["Ġweek",-9.578651554494575],["ãĢĪ",-9.579024127484846],["ãĢī",-9.579026483204489],["çĽ´æİ¥",-9.579355874733],["ĠPaul",-9.579561299854696],["37",-9.579944897685898],["ç¾¤",-9.581337639863555],["33",-9.581496982617656],["Ġinternational",-9.582762353939742],["è¡£",-9.5828373132836],["Ġcome",-9.582891819376965],["åİĨåı²",-9.583353941069678],["©",-9.584373700094403],["æ´»åĬ¨",-9.584445893860584],["çİī",-9.585801955516926],["39",-9.586422289563794],["çį²",-9.58646276293353],["åįķ",-9.587294313080966],["put",-9.587442946129867],["Ġfield",-9.587816475382754],["Ļ",-9.587892682678673],["çµĦç¹Ķ",-9.58803269243156],["å·²ç¶ĵ",-9.589082590880723],["æĵģæľī",-9.589247075104938],["åįĹæ¥µæ¢Ŀç´Ħ",-9.590128760109623],["è¿Ļä¸ª",-9.59097695258793],["è¨Ńè¨Ī",-9.591288002501583],["ç»´",-9.591498747815509],["ccording",-9.59181252393589],["64",-9.59184240767911],["via",-9.591949028032802],["ingle",-9.592985941853374],["å¯Ĩ",-9.594079795150376],["ke",-9.594440200139095],["åĶĲ",-9.594571189847027],["lost",-9.595006702896622],["ĠIndia",-9.595293041128222],["åıĥèĪĩ",-9.596006408699662],["èĲ½",-9.596510347794217],["åĪ©çĶ¨",-9.597568195634969],["éĢĻåĢĭ",-9.597580674325355],["åĽ¾",-9.598008183545192],["å®®",-9.59801365969901],["å·²ç»ı",-9.59850590729084],["ped",-9.598918657705212],["Ġtype",-9.599020293775164],["ĠWilliam",-9.5999862825228],["éĢļéģİ",-9.600124464957322],["åħ¨éĥ¨",-9.600269009512196],["¡",-9.600367787443895],["æĿ¡",-9.601068377397375],["omen",-9.601716050658204],["story",-9.602340498565225],["æĬ¥",-9.60286860182443],["Ġcontain",-9.60322830766847],["æķħäºĭ",-9.603326797084035],["ight",-9.60372049211292],["Ġtrain",-9.603875344893291],["å½ĵæĹ¶",-9.60457405634588],["ours",-9.605344619826912],["ĠEd",-9.605531178138383],["An",-9.605618381565478],["ä¸ĢçĽ´",-9.605839687033315],["55",-9.606830446672015],["Ĳ",-9.60721823609666],["åĨįæ¬¡",-9.607856548867296],["èĥ¡",-9.608685539174468],["åĽ½éĻħ",-9.60894017546066],["daughter",-9.609009263242722],["§",-9.609920189770293],["éĸĵ",-9.61075726636736],["Ġenti",-9.611458181070027],["å®Įåħ¨",-9.612401931357866],["male",-9.612912388586674],["åĬ¨",-9.61357074546466],["ç»Ħ",-9.613997829944266],["æ¼¢",-9.61415647657332],["ä»ģ",-9.614376684559163],["ãĢİ",-9.614727880491213],["der",-9.614814676284324],["rate",-9.615182258989137],["ŀ",-9.615646598570269],["production",-9.616031325762515],["Ġgo",-9.616382409926882],["åį·",-9.616561131474144],["Ġv",-9.616633873226816],["Ġmother",-9.617311884113754],["ĠMusic",-9.617516668759729],["Union",-9.61752460038964],["å¸«",-9.617928740041537],["æĪĲåĵ¡",-9.618477299887262],["çĶŁæ´»",-9.618490072069218],["field",-9.61984502858938],["president",-9.62008690652069],["æİ¥åıĹ",-9.620913026258986],["bridge",-9.624597319713745],["æĦŁ",-9.62502444948532],["èĭ±åĽ½",-9.625079859451734],["è¦ĭ",-9.62541395960331],["æ°´åŁŁ",-9.626360963643387],["Ġprofessional",-9.626483139167885],["Ġme",-9.627973508947552],["ek",-9.62799834970383],["ç¥¨",-9.62811362607826],["æŃ¦åĻ¨",-9.628421454591866],["ovie",-9.628676318442997],["signed",-9.628912319212],["å¤ľ",-9.629264681115131],["Ġhuman",-9.629536472011186],["ä¸ĢåĲį",-9.630260128195804],["ä»¶",-9.630350245566213],["Ġpopular",-9.630394887194193],["ª",-9.630473131735602],["éĢĢ",-9.630844451466348],["io",-9.63123546429621],["åĭķ",-9.631352082933969],["ĠEn",-9.6316405359807],["}-",-9.63346341651323],["èĥ½åĬĽ",-9.634093572244574],["åŃ¸æł¡",-9.63433051396087],["èĬĤ",-9.63453199130874],["å¼º",-9.63473822769237],["åħļ",-9.634926685806477],["ĠCon",-9.635397115453472],["ative",-9.635754490508294],["Michael",-9.63602460803261],["ç§Ģ",-9.636433212676362],["éĺ²",-9.636989750047594],["èģ²",-9.637367777162105],["300",-9.638093128610755],["Ġchang",-9.638178014875288],["Ġmean",-9.63836114294218],["Ġsing",-9.63840370099474],["åıĥåĬł",-9.638857355848092],["Ġsent",-9.638947672794622],["ä½ł",-9.640283816260864],["äºķ",-9.640352839870175],["çŁŃ",-9.6404084317407],["æĩī",-9.641107667130896],["èĢĮä¸Ķ",-9.64144166345163],["æľīéĻĲåħ¬åı¸",-9.641561050384444],["æľĢçµĤ",-9.64168930024362],["Ġtotal",-9.642038934655377],["Ġwha",-9.642127813930262],["leader",-9.642312018643562],["nd",-9.64295298384506],["æľį",-9.643001096736429],["å¸ķ",-9.643237018885491],["pisode",-9.6440034419443],["éģ¸",-9.644396296926],["Ġresearch",-9.645806066304289],["åĽ¢",-9.64581292302157],["çĶº",-9.645993157468409],["åĤ³",-9.646105346295498],["æıĲåĩº",-9.6468408645313],["å¡ŀ",-9.647119394924507],["çº§",-9.647936890405758],["çŃīäºº",-9.647988151137769],["Royal",-9.648246102359508],["Ġmove",-9.648355997539728],["ĠChic",-9.64855533668734],["éĢģ",-9.64895016316796],["ĠLi",-9.649051593383565],["åĩºçīĪ",-9.649527272997606],["ĠCourt",-9.64958146548057],["Great",-9.649862841927302],["Ġlight",-9.650282476688163],["æĺ¯çĶ±",-9.650488488906216],["Ġunit",-9.650961232723404],["feature",-9.651730354932592],["per",-9.651758591485368],["France",-9.651765969200609],["è©±",-9.65191011133916],["ç«ł",-9.652128856317947],["istrict",-9.6527515594887],["featur",-9.653694470537696],["éĵģè·¯",-9.654479424376984],["å¹´èĩ³",-9.654728484215742],["Ġmodel",-9.65529537244025],["è°·",-9.655503185683278],["çĥŃ",-9.65568237849325],["Ġaccount",-9.656111690644147],["åŃ¦éĻ¢",-9.65673926603858],["æľĢä½³",-9.656985253193811],["çº¢",-9.65747007499647],["ood",-9.657832743024189],["stead",-9.657852690603455],["Ġcommun",-9.6582782180479],["çĶµ",-9.658473108182342],["Ġprovide",-9.659194703793286],["ç¨±çĤº",-9.659298434515144],["ľ",-9.65990174641492],["ade",-9.660655966965315],["Ġartist",-9.661746472583095],["Ġ21",-9.661937937053214],["ļ",-9.662461541706364],["å±±èĦĪ",-9.66250739261865],["æŁ±",-9.66264519834321],["56",-9.662879616376507],["çľ¼",-9.663666898444642],["ĠPa",-9.66385837862747],["ĠRed",-9.66411776497892],["åıĳå±ķ",-9.664432742640004],["try",-9.664642503907652],["ti",-9.665025127598764],["Indian",-9.665446424066312],["èĪªç©º",-9.66634196606973],["ze",-9.667082213191527],["Ġcourt",-9.66740672176534],["ĠHa",-9.667490123673264],["get",-9.667974743385187],["Richard",-9.668132885328912],["mo",-9.668566617377564],["æ³ķåľĭ",-9.668609342508832],["åĪĺ",-9.669610634296856],["åŃ¦æł¡",-9.669942850206318],["proper",-9.6701437747586],["å¢ŀåĬł",-9.67021675976426],["å±Ĩ",-9.6702667238775],[":ãĢĮ",-9.670311155662482],["It",-9.670773440593477],["ask",-9.67178504722279],["Ġbody",-9.672096690733223],["Ġgoal",-9.67216637595805],["Ł",-9.67226622550082],["çĶ·",-9.672306779076669],["«",-9.67340490902022],["ain",-9.673470270884756],["ways",-9.674562483731751],["eight",-9.67486553468988],["Ġ186",-9.67592889505142],["Ġtreat",-9.675983768297542],["äººæ°ĳ",-9.676074391737815],["æ°¸",-9.677059267649806],["å½¢æĪĲ",-9.67765765613657],["league",-9.678530835323244],["éĻĦè¿ĳ",-9.678923519508489],["Ġsuccess",-9.679127791052943],["Ġgrow",-9.67964948058453],["36",-9.68026189835317],["Ġsai",-9.680267664533234],["ç§į",-9.68027028990551],["Ġmon",-9.6819649763652],["Ġspeci",-9.683318369111516],["å»ºçŃĳ",-9.683659094459582],["ç¾©",-9.684028453691422],["æķĻæİĪ",-9.684415110265872],["åľ°æĸ¹",-9.684584565248285],["range",-9.685055580617393],["Ġretir",-9.68516335282835],["è£¡",-9.685580311512844],["ĠWhe",-9.685649822792296],["¾",-9.686635558282877],["ull",-9.687030573242616],["usual",-9.687390836737844],["´",-9.688313025940287],["æľįåĭĻ",-9.688371469503853],["Ġ188",-9.688520039669314],["Ġmo",-9.689560715627376],["Ġve",-9.68999956878694],["çĻ¼å±ķ",-9.69028466071468],["èī¾",-9.691164987411511],["ä¸Ģæ¬¡",-9.691597069603468],["è·Ł",-9.69217856928586],["æ¨Ĥ",-9.692190586555885],["Ġindividual",-9.693059253365014],["æĿĥ",-9.69306908228979],["ĠHo",-9.693671188493209],["brother",-9.693779033845416],["ä¹ĭéĸĵ",-9.695130575098034],["ä½ı",-9.69612682238387],["cision",-9.696287944614298],["38",-9.696527125058363],["æĢĿ",-9.697995437373631],["rank",-9.698454357875498],["å°ĳ",-9.698825470199566],["åĪ°äºĨ",-9.699251584149176],["fall",-9.69988466913304],["ach",-9.70031506389352],["åĨłè»į",-9.700406272601883],["Ġpromot",-9.70086943970984],["çĽ´åĪ°",-9.700911257059428],["Ġsh",-9.70117483583964],["ĠPo",-9.701443101243338],["coming",-9.702534955672547],["èª¿",-9.70269583101648],["curve",-9.70303133812744],["ral",-9.703323632499671],["è®¾",-9.703923157894602],["åºķ",-9.703931113167346],["å±ŀ",-9.703962092090404],["nia",-9.704220867638856],["ĠSun",-9.704692936381928],["_",-9.704763926714104],["è¼ĥ",-9.705176440755318],["any",-9.705311019520243],["he",-9.705941163426775],["å¯¦",-9.706378491446449],["è½®",-9.706454334236389],["çŁ¥",-9.706475923300475],["ä¸ĸçºª",-9.707659373957217],["ç¹ªåħ¥åľ°åľĸ",-9.707751906787102],["æ¡¥",-9.707917710130996],["ĠMos",-9.70823559060842],["fail",-9.708251213842718],["ĠMel",-9.70827083081635],["Į",-9.708390943676854],["58",-9.708996079581958],["ä¸Ńåįİ",-9.709315462433455],["ĠZe",-9.70975375179901],["successful",-9.71009623174162],["åĬī",-9.7110739890176],["ç¨®",-9.711155652717366],["ĠAngel",-9.711606639205757],["nior",-9.711671941624008],["Ġneed",-9.712240482314645],["ĠMar",-9.712871349310316],["\")",-9.713539865224943],["æł¹æį®",-9.713734544271093],["Ġage",-9.714083694361412],["ĠDo",-9.714435060249066],["åľĺ",-9.7148630677543],["å¥Ī",-9.71517082969729],["è¶ĬåįĹ",-9.715909265835515],["æľĢç»Ī",-9.716437400259618],["ique",-9.716761844871188],["wood",-9.717054688995615],["å®Ŀ",-9.717685874553949],["quest",-9.718113920268191],["æľĢé«ĺ",-9.71871173715981],["¥",-9.719408794544677],["Ĵ",-9.719604350171892],["è®¾è®¡",-9.720026968980871],["å¨ģ",-9.720303373982878],["ĠPeter",-9.720317581155472],["å±ķ",-9.721713343686796],["Ġdirector",-9.723542494846647],["find",-9.7241686696545],["Scout",-9.72474186434807],["è¿ŀ",-9.725920336391994],["ä¸įèĥ½",-9.7261162866751],["Ġhost",-9.726264809815568],["la",-9.727057029484602],["32",-9.727088196320224],["Ġ28",-9.728260694181236],["çļĨ",-9.72852625590632],["ĵ",-9.72853297661112],["line",-9.728536293701112],["ç¶Ń",-9.72906352644916],["Ġproduct",-9.729529352096328],["æ¹ĸ",-9.729556916713982],["Ġremo",-9.729608050965894],["ĠTha",-9.730175039741408],["ç¯Ģ",-9.730359631093782],["Ġfurther",-9.730410232337183],["atic",-9.730630606640064],["ç«¯",-9.73095179157064],["çĪ±",-9.730963722608108],["Ġfriend",-9.730998448376802],["information",-9.73121122716046],["Ġnews",-9.7313795665039],["ĭ",-9.731397247408005],["è¾¹",-9.731873772872632],["men",-9.731981553607172],["ĠDu",-9.732068554798207],["å¢ŀ",-9.732286568097742],["å¯¬",-9.732376296368148],["¤",-9.732472580598245],["æ¼Ķåĩº",-9.73253698189218],["95",-9.732748233236732],["Ġoperation",-9.73293670904802],["æµģåŁŁ",-9.733370596672138],["ä»»ä½ķ",-9.733969776014098],["ä¸¹",-9.7339919905696],["ĠNi",-9.73466268345036],["å°¾",-9.7349588110728],["µ",-9.735216412778886],["å¹´çļĦ",-9.735500441198514],["ãĢı",-9.735639876164011],["ĠYou",-9.735926799142522],["ĠRoman",-9.736260215644917],["¦",-9.736618186782406],["ĠGroup",-9.73673587769115],["be",-9.736786058699169],["æºĲ",-9.737262580531269],["ĠAmerica",-9.73729132491327],["Ġattend",-9.737439932546124],["Ġpolitic",-9.737534084724306],["æ¢ģ",-9.738794894540764],["Ġ22",-9.73931370515727],["ãģ®",-9.739389917856135],["å¥³æĢ§",-9.740047490949516],["Washington",-9.741015363897466],["ĠLaw",-9.74118553162275],["ics",-9.741245240111812],["į",-9.741418334095789],["å±±å³°",-9.74181531116408],["ä¹Łæľī",-9.741836857976402],["Ã",-9.741999213008226],["èĪīè¡Į",-9.743262159316668],["Thomas",-9.743800074775836],["Ġelect",-9.743994802551182],["è²łè²¬",-9.744608560931225],["66",-9.744669685607452],["Ġmus",-9.744856828295736],["ĠHill",-9.744897023249024],["å½±",-9.745722252913716],["¿",-9.74609394821736],["Ġlimit",-9.746500373677708],["Ġappoint",-9.747057684935594],["ĠBay",-9.747100678604935],["bound",-9.747162748980394],["ĠIS",-9.747221436954362],["å¼·",-9.74803536402402],["span",-9.748431064050394],["é»¨",-9.74857806846606],["ak",-9.748834393650736],["é¤¨",-9.749456792866296],["çĳŀ",-9.749850312665169],["ĠHistor",-9.750077634682883],["åŃĺåľ¨",-9.75119770197448],["®",-9.751452215286772],["æł¸",-9.75185414591098],["è«¾",-9.752641804326128],["ä½Ļ",-9.753068651119086],["ĠChurch",-9.75340668250966],["ä¸įéģİ",-9.754606394448697],["åĳĺ",-9.755131658057852],["Ġrail",-9.755976098732372],["å¿ł",-9.75631913628218],["åį´",-9.756323303480787],["Ĥ",-9.756801457403547],["å¾·åľĭ",-9.757297738601968],["Ĭ",-9.757794187099492],["æĶ¿çŃĸ",-9.758588890053272],["å½±éŁ¿",-9.759548004922094],["æľįåĬ¡",-9.759678380348134],["åĨ³å®ļ",-9.759929361154576],["ĠBlack",-9.760066077904938],["Ġrace",-9.760337254995482],["ĺ",-9.760925751531948],["cross",-9.761193541042104],["Ġvisit",-9.763032669910965],["Ġrespect",-9.763365396771905],["di",-9.763650168571132],["pite",-9.763766389907264],["ĠMus",-9.763818940932296],["éĽ»è¦ĸ",-9.76463405740594],["æŀľ",-9.76483743870264],["ç±į",-9.765173516480294],["è®¡åĪĴ",-9.765202927666667],["æ¥Ń",-9.765844676158515],["ges",-9.766441368111575],["å¸ĮæľĽ",-9.767041545349048],["çĦ¡æ³ķ",-9.767882269547012],["Ġexist",-9.767976738384744],["initial",-9.768419068899084],["è¿Ļä¸Ģ",-9.769012708606017],["å°įæĸ¼",-9.769036751701666],["è¡Įåĭķ",-9.769452284497156],["æľŁéĹ´",-9.769594237978758],["method",-9.769692317658135],["æ¢Ŀ",-9.77021944709422],["Ġanti",-9.770395987941397],["IS",-9.771013413032048],["onths",-9.771203860854792],["ĠDi",-9.771280338221043],["Ġarr",-9.771439637441404],["åıĳçİ°",-9.77285088178619],["åŁĥ",-9.773105586004476],["åŃ¸éĻ¢",-9.773588247057155],["çķĻ",-9.77426781385296],["çı¾æĻĤçĶ±",-9.774424168868023],["ette",-9.775106414399826],["æĹ¥åľ¨",-9.775274468462376],["èĲ¨",-9.77586541882265],["good",-9.7763405278769],["çĩŁ",-9.77657355790377],["åĳ½",-9.777083759494252],["äººåı£",-9.777342241013796],["èŃ¦",-9.77827003457799],["å¥§",-9.779186742172556],["mar",-9.77938933664063],["ĠJu",-9.78002830380996],["å·®",-9.780470836117816],["æŃĮæīĭ",-9.78049608789384],["ants",-9.780617865368503],["ä¸īå¹´",-9.780696934079],["Ġauthor",-9.781796282854458],["ĠDr",-9.782661153142415],["éģł",-9.782828442093203],["æķĳ",-9.783040561173127],["First",-9.783252615316664],["é£Ľ",-9.78343112144962],["å¸¶",-9.783939065732314],["ĠRo",-9.784450393736307],["ither",-9.784531411786856],["åĮħ",-9.784540677906616],["éŁĵåľĭ",-9.784652137616847],["lin",-9.784664827207088],["åħ·",-9.785767686923474],["æ©ĭ",-9.786113245691425],["ä»įçĦ¶",-9.787053755503392],["äº¬",-9.78728573755318],["ĠLu",-9.787672791768305],["Ġ23",-9.787836954078918],["ç»ıæµİ",-9.788063765887696],["åıĸå¾Ĺ",-9.788495324123794],["ĠUn",-9.788571400701995],["ĠAustral",-9.78938667271496],["å¸¦",-9.790500166723833],["em",-9.791330465536392],["åĺī",-9.791764108503262],["æĸ¯çī¹",-9.79245478179262],["berg",-9.793978119493936],["Ġvideo",-9.794022124475791],["ventual",-9.794076261527309],["ĠStar",-9.794351472820969],["äººæ°ĳåħ±åĴĮåĽ½",-9.794564860401652],["launch",-9.794795316469685],["å½±çīĩ",-9.794840236075212],["ĠBr",-9.794985143498511],["course",-9.795671500507176],["æĸ¹åĲĳ",-9.797445028214389],["ĠSoci",-9.797766040259887],["ka",-9.797956767719816],["½",-9.798622900129196],["ell",-9.798654861633407],["åħ³",-9.798770286333172],["åĸ®",-9.798844808806376],["ED",-9.79891367808053],[");",-9.799676062354376],["Ġcamp",-9.80023837423838],["ĠNav",-9.801692697283778],["using",-9.8019936097547],["Louis",-9.802045174691717],["ĠBy",-9.80222001241988],["åľĸ",-9.802654082973996],["ç¯ĩ",-9.80270097198811],["å¸Ŀ",-9.80316796139941],["ãĢĭ()",-9.80326148729228],["ĠCompany",-9.80332426528792],["æľ±",-9.80376516359266],["claim",-9.805036053288047],["åĩºçİ°",-9.805196470689827],["TV",-9.80563435524381],["particular",-9.807090583055924],["olog",-9.807301467664452],["Thi",-9.807379254238842],["å¾·åĽ½",-9.807467986658311],["ĠGu",-9.807900133994192],["éļĨ",-9.80798653681001],["Ġbattle",-9.808499454651978],["Ġcomplet",-9.808822638804113],["53",-9.809289483990488],["ĠMartin",-9.809750714216184],["structure",-9.809869902051878],["Ġhit",-9.809892543751875],["stone",-9.81067893370823],["long",-9.810704819031944],["å¤±",-9.810892223631342],["æĹ¶æľŁ",-9.811058727786516],["å®īåħ¨",-9.811403077556829],["Ġ100",-9.81162515270528],["è¨±å¤ļ",-9.812694700106004],["èµ´",-9.813046380489888],["èµĽ",-9.81305923310368],["Ġoccu",-9.813313917599396],["Ġtour",-9.813581826011454],["Ġinter",-9.813762722645103],["Ġten",-9.81377264819256],["Ġ187",-9.81478001324553],["date",-9.815051232753737],["æī¿",-9.815171347525055],["ĠLat",-9.81553424821993],["éģŃåĪ°",-9.815985785259516],["ä¸ģ",-9.81610912784431],["Ġdecid",-9.81643594513534],["nother",-9.816622508933074],["Ġ27",-9.816960486641364],["va",-9.817630553916857],["å®ģ",-9.818852947946748],["row",-9.819154331462164],["review",-9.819386056037118],["Ġprovid",-9.819623121866428],["ç¤¾ä¼ļ",-9.819657273731153],["Q",-9.819871878910243],["éĹ®é¢ĺ",-9.820976394623496],["text",-9.821343906989622],["äººåĵ¡",-9.821379421431525],["å¹¶ä¸Ķ",-9.82263974322428],["å§Ķåĵ¡æľĥ",-9.822845766817297],["activit",-9.822981280883178],["éĻį",-9.822988174993917],["ĠBook",-9.823640100165354],["ä¸ļ",-9.823990999769428],["appearance",-9.824958963079068],["å²ģ",-9.825501130878036],["å»¶",-9.825736169486262],["active",-9.82603589108561],["Ġtw",-9.826843356501548],["act",-9.827476251392133],["æķ´",-9.828629025924553],["Ġcho",-9.829887484173824],["ä¸¦åľ¨",-9.8299925602638],["cience",-9.83011965414155],["éĸĭçĻ¼",-9.830510647524305],["gree",-9.830653254242527],["59",-9.830674679639149],["ium",-9.831315249570237],["èģ¯",-9.831409530980352],["ĠTime",-9.831819243016795],["åĭķçķ«",-9.831845354012623],["li",-9.832740758508448],["award",-9.8329691106362],["189",-9.832993552560175],["å°Ĭ",-9.833219937757246],["å¥¥",-9.833277509037304],["57",-9.833305817791905],["ĠSy",-9.833747637354744],["Ġliv",-9.833848688382735],["éĻĪ",-9.834088167720244],["è¥¿èĹı",-9.834593297497053],["Ġenter",-9.835579883316708],["ri",-9.835763239983184],["office",-9.83608515959942],["æĮĩåĩº",-9.836799985281282],["èĪĬ",-9.837284151309618],["æİĴ",-9.837557170329587],["ä¼ł",-9.83833532428093],["ı",-9.83852600890228],["Ġ26",-9.839158742377553],["çĽ®",-9.841108432609612],["paper",-9.84150538016226],["seven",-9.841940492708584],["éĥ¨éļĬ",-9.842309827146805],["ĠBa",-9.842700969687169],["¨",-9.842843294927924],["ĠNews",-9.842932894287369],["çİ¯",-9.84363408079765],["ç¹¼çºĮ",-9.843853454036822],["Ģ",-9.843872173859957],["æŁ¥",-9.844099065357542],["au",-9.84569453251174],["ĠCharle",-9.846211228229942],["Ġview",-9.846266282987212],["ĠClub",-9.846295248855272],["Ġmid",-9.846763807135924],["require",-9.847081704792096],["çĻ¼çĶŁ",-9.847598251621951],["188",-9.847613935947908],["éĹľ",-9.84831962239284],["éĽª",-9.848628226532814],["éĢŁ",-9.849190956691212],["ä¾Ŀ",-9.849191177217136],["æĵĬ",-9.849506888019953],["è®¾æľī",-9.849636689804464],["400",-9.85004622615065],[">",-9.851091818730824],["ddition",-9.851130585156808],["Canadian",-9.85113089280387],["ab",-9.851792849672767],["æ¥µ",-9.851959116325348],["Ġguitar",-9.851995437728238],["å§Ķåĳĺä¼ļ",-9.852034008612454],["ists",-9.85216726232374],["Center",-9.852777004060371],["Ġtimes",-9.853849424583856],["ves",-9.853922824642035],["èģ·",-9.854062317456766],["äººçī©",-9.854087456767164],["åķıé¡Į",-9.854206913736157],["æĺĮ",-9.855867775130015],["ç¬¬åĽĽ",-9.85621281286038],["off",-9.856467701261304],["Ġpar",-9.85718199448801],["å¥³åŃĲ",-9.85738559563315],["ĠSo",-9.857475959522176],["Ġwide",-9.857883292894794],["éĢī",-9.857921074215197],["æµ·è»į",-9.857949585203196],["over",-9.859257450004186],["èª¿æŁ¥",-9.859313106882418],["èĭı",-9.859738811871178],["ĸ",-9.860656833700624],["ĠWhite",-9.861054784195872],["¸",-9.861204675793116],["ick",-9.862601152739447],["tter",-9.862760347275769],["ĠChristian",-9.863994994231932],["ä½¿å¾Ĺ",-9.86442714956897],["Ġcomplete",-9.865606255588478],["åıĳè¡Į",-9.865727838149676],["asketball",-9.865746321782613],["è¨ĪåĬĥ",-9.865799897301777],["Ġcampaign",-9.865897819601605],["åĪĩ",-9.866478315820494],["Ġconsist",-9.868985712216707],["éļı",-9.869100190048757],["æºª",-9.86910020542622],["Ġcontract",-9.869134393248384],["åħ°",-9.86969322869824],["â",-9.869961222800557],["67",-9.870292486308845],["ĠFro",-9.87032493884714],["avail",-9.87074385348156],["ĠRoad",-9.870775980227286],["æ¸ħæľĿ",-9.870938658737012],["é²ģ",-9.87177054260479],["ä¹Ĳ",-9.872794912243446],["UK",-9.873009635794569],["Ġspecial",-9.873443428787182],["47",-9.873543839948091],["Ġdam",-9.87422474358898],["never",-9.874383482028463],["æĹ¥èĩ³",-9.874626202585898],["éĿĴå¹´",-9.8749029150558],["ä¸»å¸Ń",-9.875685712288622],["outhern",-9.87574141944632],["éĺ³",-9.87582580802211],["ä¸Ģä½į",-9.876885118125085],["Ġaccess",-9.876905835416949],["çĨ±",-9.877570206883192],["American",-9.878156634072043],["çħ§",-9.879322526980776],["èĢĥ",-9.879592180453804],["è®Ĭ",-9.88019042234437],["seat",-9.88100472476361],["park",-9.881080363614188],["Ġmarket",-9.881174691803384],["çİĽ",-9.882310870649349],["ĠPr",-9.882390308339062],["Ġscor",-9.882460416696045],["63",-9.883742697333158],["éģŃ",-9.884226581456655],["ress",-9.886390962390738],["Ġround",-9.886928902894564],["ç²¾",-9.887308090002008],["Ġstrong",-9.887397499059077],["æĻº",-9.887502021937696],["å¯Į",-9.887515392942252],["åĢĴ",-9.887562928741664],["rsey",-9.887864537737135],["How",-9.88791956876249],["possib",-9.888420025303002],["Ġreal",-9.888571924720752],["Ġcontribut",-9.888601377343202],["èµ«",-9.889703337568042],["ĠMac",-9.890128463301735],["ived",-9.890303183850987],["Ġmaterial",-9.89065541318838],["hich",-9.890932918889296],["ħ",-9.891676108454412],["æ¡ĳ",-9.891726153243953],["Ġcompos",-9.891913699395722],["åºĶ",-9.892647780128318],["éħį",-9.892774128408629],["Committee",-9.89317721952053],["æĿľ",-9.893192210160803],["74",-9.893704951763793],["å¿«",-9.89375362738695],["æ°Ķ",-9.894323354110782],["æİ¨",-9.894713329508612],["tory",-9.8957108270659],["ĠMad",-9.895915503131304],["formation",-9.896008018739389],["ä½³",-9.89682579105332],["tor",-9.8969294010866],["åį°",-9.898209271513156],["Vietnam",-9.898247809878818],["ĠCar",-9.89838388914074],["word",-9.899344024044971],["æĪ°çĪŃ",-9.899707240038907],["åįĹéĥ¨",-9.899749310814006],["é¡ŀ",-9.900168874700276],["ean",-9.900352924994296],["æ¨¡å¼ı",-9.900845002671364],["ĠBas",-9.902445866702209],["49",-9.902619755937078],["Ġweb",-9.90271282739976],["Ġtri",-9.902770614853662],["ubsequent",-9.90334265634527],["åģĩ",-9.903409385117952],["Ġblock",-9.903761476890162],["replac",-9.903782448891056],["âĢĿ(",-9.904318100474734],["77",-9.904320856251802],["çĽĽ",-9.904751920716311],["Ġdes",-9.904796004558758],["éŁ³ä¹Ĳ",-9.90556264393137],["Ġapp",-9.905585510218684],["åĢ¼",-9.905811511618062],["åĢį",-9.905911113774506],["åģľ",-9.905939141982714],["Ġeffect",-9.905964608426313],["ja",-9.906061443230882],["Service",-9.906703627186982],["ä¹ħ",-9.90709019705605],["rs",-9.907802867263278],["éĹľä¿Ĥ",-9.908288242790508],["Al",-9.909068164566593],["ease",-9.909553205263771],["ko",-9.91040122916894],["saw",-9.910759612985412],["ç¨ĭ",-9.910974249374185],["76",-9.91219272409688],["mpire",-9.912196014421015],["è¦ª",-9.912246544762493],["ä¾Ĩèĩª",-9.912387671029808],["ni",-9.912484867878874],["å¤§éĩı",-9.912663342115083],["stance",-9.91306710127562],["ĠTV",-9.913389369384834],["construction",-9.913811729715531],["ç¥ĸ",-9.914446845809636],["ç»ĵæŀĦ",-9.915041149867948],["æİ¨åĩº",-9.915099223897386],["bas",-9.91541729465401],["æĿ°",-9.91590252031376],["åĸĦ",-9.915972103826174],["Ġintroduc",-9.916153179716751],["åĨĻ",-9.916562858920484],["åĢĳ",-9.916723283763282],["ĠGold",-9.916731365200992],["æĹ©",-9.91683006659667],["Ã¡",-9.917157215782936],["ĠMont",-9.9172496910277],["ho",-9.917435920399098],["èī¯",-9.917655865125491],["46",-9.917693683198417],["èįī",-9.918195149766284],["æľĹ",-9.918220338988585],["å¹´èµ·",-9.918768475989268],["Ġpay",-9.919426030374645],["Ġtravel",-9.921828443511847],["å°Ħ",-9.922445866427488],["æĸ½",-9.92333962655612],["Ġeducation",-9.923416901556704],["Ġnovel",-9.92404989749508],["ĠLor",-9.92422497101762],["Ġradio",-9.92456616542762],["rug",-9.924731480540682],["ĠKo",-9.924831208678215],["oil",-9.924883907628685],["è¶ħéģİ",-9.924923381229874],["hile",-9.92493377993086],["èĬĤçĽ®",-9.924985745149009],["Ġblack",-9.925207074468457],["éĢł",-9.925448566079105],["å¾®",-9.92589304504254],["ç½ĳ",-9.925985140139858],["ap",-9.926004064724744],["tion",-9.927149879086397],["è§ģ",-9.927776526421088],["åĬŁèĥ½",-9.927811862748229],["åıĳçĶŁ",-9.927986628108735],["ah",-9.928726899455295],["äºĳ",-9.92880711255474],["åģı",-9.92896705516488],["æĶ»æĵĬ",-9.929139737546484],["Ġless",-9.931368589555223],["ox",-9.931529420059851],["çĪ¶",-9.931705508150122],["éħĴ",-9.931720529176122],["Europe",-9.931986620779917],["Ġpersonal",-9.932038657119293],["æ¯Ľ",-9.93207568784401],["Ġcenter",-9.932139096670936],["æĥł",-9.932567627246543],["ç¤¾æľĥ",-9.933136570840496],["charge",-9.933529728374465],["As",-9.934116131128963],["FL",-9.935620482360232],["44",-9.935829273182694],["çĽ®èĦĤé¯īäºŀçĽ®",-9.936489645620028],["è°ĥ",-9.937564964681457],["ill",-9.9380949514274],["ung",-9.938522948439749],["ĠGreen",-9.938545125512167],["Ġrock",-9.93982868929434],["èı²",-9.940499313370704],["ĠDay",-9.9405944982113],["center",-9.940609928791435],["location",-9.940753164405136],["68",-9.94095638735927],["offer",-9.941019591987375],["ä¸Ńåħ±",-9.94194061901205],["çł´",-9.942141335998322],["cle",-9.942325885434864],["æĬķ",-9.942395316711856],["æĺ¯åľ¨",-9.942631074149936],["ä¾Ľ",-9.943548091073724],["ä½ľå®¶",-9.943551613758082],["åĥħ",-9.9440690695223],["éģĭåĭķ",-9.944654805806907],["æĸ°èģŀ",-9.94481785996948],["eign",-9.944986431514993],["km",-9.945024984044402],["ntarctic",-9.945069522698194],["ĠScott",-9.945346436313187],["æĹ¶éĹ´",-9.945464540710834],["verage",-9.946298211827571],["Ġcondition",-9.94674628192524],["ough",-9.947380117093804],["ĠDemocr",-9.94740227078579],["ĥ",-9.947450226138074],["äººçļĦ",-9.947712048134086],["Ġwest",-9.94842712787365],["åħ¬è·¯",-9.948823897060525],["åıĺ",-9.948955031461727],["å®ŀ",-9.949030242109298],["look",-9.949557477683616],["shire",-9.950420401259748],["Ġsocial",-9.95076268480183],["Ġwe",-9.951076043115496],["De",-9.951262462384465],["ĠMary",-9.95148388542972],["For",-9.951573006632836],["æ°ĳæĹı",-9.952382148060153],["52",-9.95260862532042],["åĨ°",-9.95276167805653],["ug",-9.953206267772444],["ĠBal",-9.953535604899006],["ä¸ºäºĨ",-9.955007045569715],["Ġcaus",-9.955273286819946],["inning",-9.955501409138035],["ĠMor",-9.955618106291114],["65",-9.955865126107618],["æĭįæĶĿ",-9.956492592541917],["Ġfactor",-9.958036419778296],["Ġsurviv",-9.958478197162664],["èģ¯åĲĪ",-9.959334887964868],["å°ļ",-9.959812174189022],["åįĹäº¬",-9.959990153199392],["oc",-9.96016401996392],["ĠMy",-9.960267718443712],["Ġcombin",-9.960344598281306],["åĢ«",-9.960459719379651],["ĠRa",-9.96062715721906],["ç´ł",-9.960879061115048],["åľ£",-9.96109351402998],["element",-9.96193557353014],["æĺŃåĴĮ",-9.96194467054842],["Ġadd",-9.96207318022498],["éłħçĽ®",-9.96274853791552],["singer",-9.963020161379404],["èĪĪ",-9.963026022323104],["å²Ľ",-9.963574016500065],["once",-9.964413463344169],["åıĮ",-9.965633307634548],["ç½ĳç»ľ",-9.96660465272058],["æĬĢæľ¯",-9.966686508320606],["ĠRom",-9.966962265040449],["åĮħåĲ«",-9.967280499769355],["åĢĭç¨®",-9.967780105375212],["ç½²",-9.968485015418082],["ĠHar",-9.968855365836578],["æĹħ",-9.969072043748206],["è¨Īçķ«",-9.969358233502836],["inister",-9.970336361062763],["ĠSmith",-9.97039907632232],["ĠEx",-9.970478627823988],["sold",-9.970619196945629],["åĮĹéĥ¨",-9.970844243724043],["99",-9.97098940331292],["åı¦ä¸Ģ",-9.971693275962089],["éĿ©åĳ½",-9.971927788142654],["Ġproblem",-9.972063424685462],["åŃ¦ä¹ł",-9.972516211640702],["Äģ",-9.972661281982267],["reek",-9.97281650936198],["Ġfire",-9.97399274795787],["prison",-9.974031621348544],["å¯¶",-9.974579424105968],["å½Ī",-9.97485772081206],["ĠWester",-9.974895386389152],["background",-9.975289128176737],["hi",-9.975886407679187],["²",-9.976817010708778],["å±ĭ",-9.97736543792098],["ä½Ĩåľ¨",-9.977377953343384],["ä¹ĭéĹ´",-9.977653444657411],["åŃĺ",-9.979368449911698],["ov",-9.980110850333531],["Ġsumm",-9.98011667350087],["lo",-9.980245317661392],["è¯º",-9.980324751177958],["æĺĵ",-9.980563280914051],["ç±»",-9.98060626533506],["é£¾æ¼Ķ",-9.980686755896134],["æ£²æģ¯åľ¨",-9.981507223215049],["61",-9.982159642198043],["å¤ļæ¬¡",-9.982985281608771],["Ġsuggest",-9.983075432270404],["ĠCentral",-9.983267061013198],["ĠChrist",-9.98351673858927],["Ġrotat",-9.983921568576491],["Institute",-9.984092625045482],["ãĢĤãĢį",-9.9841196518403],["éĽ¨",-9.984413497757274],["éĿ¢ç§¯",-9.98508955708913],["åĽŀåĪ°",-9.985150489011572],["é¡¶",-9.9856595292],["åħ§å®¹",-9.985662295146444],["èĲĬ",-9.98583783090622],["æ³ķå¾ĭ",-9.986172529753867],["ç·¨",-9.986392489229484],["Ġnight",-9.986502101963133],["ä»¬",-9.986747301138951],["Ġlea",-9.98834280859444],["åľĪ",-9.988446081737743],["ĠAm",-9.988627361007428],["å®¶æĹı",-9.988656002519363],["others",-9.988773076575637],["ĠUp",-9.98890771856982],["ĠGo",-9.99008806313789],["ile",-9.99079082489041],["hen",-9.99171591751195],["è´¨",-9.99216131003336],["Ã³",-9.992412293779282],["èģĶ",-9.992557504563608],["å¼ķ",-9.99259886755199],["å£°",-9.99275905562028],["ik",-9.992916278774407],["æİ¢éļªéļĬçĻ¼çı¾",-9.99369173652757],["çį¨ç«ĭ",-9.99382085082808],["Ġforc",-9.993998333000944],["86",-9.994472297834264],["æĸĩçī©",-9.994634230567748],["rule",-9.99488325701751],["85",-9.995032213879828],["çıł",-9.995747689704928],["æľĿé®®",-9.996661263773248],["æĻĤæľŁ",-9.997147956937642],["äº¤éĢļ",-9.997446366090784],["gen",-9.997505431867337],["é£Ł",-9.99761184623326],["ĠCatholic",-9.997698450452829],["çĶ¨äºİ",-9.9982641820923],["æĪĺäºī",-9.998634652335788],["ster",-9.998824097860686],["98",-9.999023194271862],["Ġbi",-9.999157002019343],["è¡Ģ",-9.9993991803939],["å²©",-9.999519618992592],["mer",-9.999699345356742],["åįļçī©é¦Ĩ",-9.999784429456534],["Ġr",-10.000258140012118],["Ġground",-10.000378444054784],["not",-10.00103820624548],["æľĢåĲİ",-10.00113617736248],["è¶³",-10.001221092774632],["Ġvict",-10.001628919099195],["size",-10.00185365383454],["za",-10.00222469222685],["å¾Īå¤ļ",-10.002260507638658],["ĠJon",-10.0032718503693],["want",-10.003315870136568],["æĪ´",-10.003572913791164],["ax",-10.004143877435492],["uture",-10.004585692103362],["åº«",-10.004901030091451],["éĻ½",-10.00498900631019],["ä½Ĳ",-10.00529513585206],["åīµä½ľ",-10.005688212809616],["Ġmodern",-10.006348354476472],["èĴĤ",-10.006380635122252],["sis",-10.006749649161204],["ĠTex",-10.006781228431496],["ping",-10.007215006023916],["éĻĲåĪ¶",-10.007643628041828],["æľĽ",-10.007776239583308],["Ã¼",-10.008067280427824],["value",-10.008380210361382],["ying",-10.00860202057949],["gent",-10.008647424653924],["è¥¿åĮĹ",-10.00957878254751],["å½±åĵį",-10.00977191607945],["ver",-10.009993686568432],["Ġplant",-10.01187289089252],["æ¯ıå¹´",-10.01202314500894],["ĠGod",-10.012646912151885],["42",-10.012695175823124],["æ¨ĵ",-10.012964503925058],["éŃı",-10.013151203894855],["era",-10.013418345425572],["ha",-10.013428762559286],["äººå£«",-10.013557950393732],["æĹ¥èµ·",-10.013645316307027],["å±Ĥ",-10.01456682991778],["ger",-10.014778927363436],["éľį",-10.015530718121708],["ĠSome",-10.016032258109572],["èİ±",-10.016045893918813],["like",-10.016856313665585],["ĠPen",-10.01697486071794],["æĪ°é¬¥",-10.017230285003787],["ister",-10.017247037150604],["ely",-10.018627716698202],["è¿Ĳè¡Į",-10.019221130825043],["å¹¿",-10.0197131484181],["church",-10.01974364672168],["è¿Ĳ",-10.0200823929074],["éłĺ",-10.02071313011541],["ä½ķ",-10.021056181441434],["åŃ¸çĶŁ",-10.021163175956532],["rew",-10.021204358448422],["åºĶçĶ¨",-10.021654442909174],["Assembly",-10.0224878222471],["ç»ĦæĪĲ",-10.02257599323525],["ĠObservat",-10.022676012747445],["İ",-10.023083655557098],["54",-10.023287009652972],["æ±Ĥ",-10.023334110759684],["stage",-10.02339525859605],["Ġpaint",-10.023662177671696],["loss",-10.023897178078585],["åĶ±",-10.02439340379305],["Ġcarri",-10.024506460984249],["æķ£",-10.024721627429953],["åħ¨çĲĥ",-10.024747999675638],["æ´ŀ",-10.024874287926536],["è¿ŀæİ¥",-10.025022366061744],["å¢Ļ",-10.025051727447233],["lower",-10.02506775395985],["epartment",-10.025139021550068],["ba",-10.02545808705532],["Virgi",-10.025518249022868],["town",-10.025805226296567],["Ġmet",-10.026895697904752],["ware",-10.027365107963131],["ew",-10.028348380721384],["Ġchild",-10.02841542465103],["å½Ĵ",-10.028934919870435],["æŃĲæ´²",-10.029013258434588],["Ġdriv",-10.029329021117924],["ĠTe",-10.029701053362626],["Ġbeliev",-10.030335865794411],["Ġexecut",-10.030387041646446],["regular",-10.030551441340672],["èĳī",-10.030788738298687],["å¼Ģåıĳ",-10.031532598782682],["69",-10.031871746288717],["Ġ29",-10.032112717647871],["aircraft",-10.03216866417684],["çĦ¶",-10.03218891322384],["right",-10.03264492306998],["ĠGrand",-10.03311062882096],["ä¸»æĮģ",-10.033265853233912],["æŃ¥",-10.033270327119066],["vote",-10.033366269241164],["è¼ī",-10.033435066205175],["division",-10.033497862903443],["çī¹åĪ¥",-10.033723848545534],["78",-10.033725138717024],["å±Ĭ",-10.033919794137477],["ĠStan",-10.03395180905837],["å»£",-10.034088031759577],["åįģåĪĨ",-10.034097375159115],["æŃ»äº¡",-10.034450907227336],["å¹²",-10.034571033541852],["ius",-10.035147938506562],["97",-10.035363549200206],["Ġindependent",-10.03616651568526],["å¹³åı°",-10.03645829656287],["Ġbroadcast",-10.036609295646668],["ul",-10.036703537398983],["<",-10.037056256480906],["æĬĢè¡ĵ",-10.03706145440071],["æĸ°éĹ»",-10.037277257903536],["fight",-10.03731657083122],["æ¯«ç±³",-10.037399599040643],["åĬłæĭ¿å¤§",-10.037691792162072],["Team",-10.038263438858332],["å¯¼èĩ´",-10.03833344118074],["æĹ§",-10.038953885563714],["62",-10.038960708913407],["ä»ħ",-10.039458627259563],["éĽ²",-10.039674223051229],["practice",-10.03975429359555],["ĠParis",-10.039773547295605],["adium",-10.040126949252535],["æ³ī",-10.040674813812618],["å¾Ĳ",-10.040714724159496],["Museum",-10.04297691593666],["ĠHenr",-10.043121233373416],["è¿ĲèĲ¥",-10.043219191601915],["çļĦä¸Ģä¸ª",-10.043476012003604],["æľĢåĪĿ",-10.043721896094244],["ĠAnd",-10.044454411229236],["æ´ĭ",-10.044560368646463],["åĪĨåĪ¥",-10.045638842698429],["ĠHu",-10.045692505410848],["Two",-10.045868801197992],["focus",-10.04590039954428],["ĠCh",-10.045950596507328],["ica",-10.045960707037716],["ĠFrank",-10.04697371070527],["que",-10.046977199833549],["èİ·",-10.04740087770186],["ll",-10.04740743408391],["leave",-10.04752839696038],["Ġstudi",-10.047726904191864],["åŁºåľ°",-10.047747685258646],["lan",-10.04823037270145],["ç«¹",-10.048326032560498],["éĤĬ",-10.048576863089064],["åħ¬éĸĭ",-10.048737475400882],["éłĵ",-10.049222943052603],["Ġconnect",-10.049292978236457],["significant",-10.049473163410468],["æĶ¹çĤº",-10.050624089833956],["ĠPan",-10.050667852085631],["èī¦",-10.050921338502643],["rich",-10.051594163504928],["çļĩ",-10.05173875611082],["æĶ¯æı´",-10.051797884013713],["èĲ¥",-10.051833142678516],["åĨįåº¦",-10.052924437546816],["ville",-10.05341154326018],["èĩªçĦ¶",-10.053511543678098],["ĠHam",-10.053988069209767],["venue",-10.054021745532545],["èĮĥ",-10.054313157098775],["article",-10.05457058665443],["å§Ķ",-10.0550209079962],["è²»",-10.055090985622943],["Ġsta",-10.055529646624745],["åĪ¶ä½ľ",-10.055671606409556],["600",-10.055885901156277],["hur",-10.056766463244193],["mas",-10.05714542064118],["æĮģ",-10.057219057452006],["èĩ£",-10.057290692133812],["éĤ¦",-10.057515513199537],["ĠAcadem",-10.05761069138041],["åįļå£«",-10.05785513552114],["At",-10.058086676785514],["ç½ª",-10.058252768203928],["ailway",-10.058730397970912],["å¹´åº¦",-10.058785758969435],["Ġsubject",-10.0588910044121],["ĠNor",-10.058971631531126],["Ġ185",-10.059269706561487],["ud",-10.059362561100082],["è¡ĮæĶ¿",-10.059364326117285],["tra",-10.059365974904216],["vice",-10.059865154248158],["è¼ª",-10.060182001231532],["éĢıéģİ",-10.06075307974354],["bert",-10.061037378925938],["certain",-10.062415324097312],["ĠFeder",-10.06319116532404],["III",-10.063312099534954],["Ġbooks",-10.063511917583346],["æĦıå¤§åĪ©",-10.063611144189991],["æĿ¨",-10.06370259545469],["ĠGa",-10.063803478849591],["ä½ľæĽ²",-10.06385712958895],["éłĤ",-10.063931228293733],["mm",-10.06556379831596],["ĠBra",-10.066398183832703],["room",-10.066807324569451],["92",-10.066894798314586],["è¿ľ",-10.067147838824573],["az",-10.067311492381144],["Be",-10.068264888430292],["è¿ĶåĽŀ",-10.068324710198564],["å¥ī",-10.06867944944337],["ĠBrown",-10.068700294058278],["åħ©åĢĭ",-10.069092734593664],["hief",-10.069131990762404],["èİī",-10.069320381967582],["ç»§ç»Ń",-10.069731904402325],["åıªæĺ¯",-10.069807697360524],["ĠBar",-10.070027726994532],["pe",-10.070132225290005],["è²Ŀ",-10.07079563705761],["Ġaccept",-10.071062214486265],["çĶŁçī©",-10.071739565022522],["åħ±æľī",-10.071946119305174],["æİ¡çĶ¨",-10.072020226546703],["æĭį",-10.072538802984212],["çĻ¼è¡¨",-10.072641480251503],["dditional",-10.072704741194393],["åħĦå¼Ł",-10.072743353592326],["âĢĺ",-10.072774221887125],["æĢİä¹Ī",-10.072923557518951],["æĶ¹ä¸º",-10.073294623024411],["magazine",-10.073858570322658],["Ġwhite",-10.073927235707496],["èĸ©",-10.074045361179872],["ĠTor",-10.074083145205684],["Ġhold",-10.074963445744222],["Ġrelat",-10.07576715308256],["ĠPi",-10.076200283104004],["å¥Ĺ",-10.076445899694065],["Ġoppos",-10.077337674559695],["state",-10.077478213810773],["hind",-10.07771530195371],["training",-10.077738503758166],["åł¡",-10.077838795350534],["88",-10.077877773800942],["åĪ¶åº¦",-10.078069722391447],["å®¶åºŃ",-10.078187287604932],["æĿ±äº¬",-10.078859319533317],["estival",-10.079072725619069],["SE",-10.079407126528164],["ĠRu",-10.07946908278091],["Ġga",-10.080075543704885],["arily",-10.080166453133174],["cer",-10.080264230296134],["ĠRepublic",-10.080381529134671],["å»ºè®¾",-10.080635817250773],["Ġad",-10.08075098903852],["Ġscore",-10.080770141163269],["Ġpropos",-10.081464931131745],["éģĭ",-10.081560145913324],["æ¸¸",-10.081815275283468],["writer",-10.082125657194553],["187",-10.082268828878096],["culture",-10.08235886580881],["æĸ°çļĦ",-10.082381422648895],["Ġcell",-10.082654966910544],["African",-10.083542567472584],["éģ¸èĪī",-10.08409475695442],["ä»½",-10.084245399412392],["å®½",-10.084909089176511],["çķ¶åľ°",-10.084970569055551],["uke",-10.085254760245626],["back",-10.085571479622883],["ç¸½çµ±",-10.08608473465722],["Wh",-10.086494187563495],["¶",-10.08721695511691],["ĠLee",-10.087570539522588],["Ġcomplex",-10.0879678123292],["äºĮå¹´",-10.088627768000164],["éĩįè¦ģ",-10.088762378673389],["æĵĬæķĹ",-10.089113539959556],["ĠVi",-10.089155799669069],["èĴĻ",-10.089804927231546],["Ġdeal",-10.089900916830128],["Ġcommand",-10.090365955659204],["force",-10.090437899196218],["Best",-10.090943221117968],["ga",-10.090995682584506],["Ġtransfer",-10.091311013566417],["åĭĻ",-10.091412532000582],["è¿ĺæľī",-10.09148638978547],["åĨł",-10.091726619805318],["leading",-10.09221649141071],["æľºæŀĦ",-10.092459566113597],["éİ®",-10.092495011995446],["åºĵ",-10.092873847146231],["To",-10.092926620063729],["mes",-10.0930078191481],["tw",-10.093016966687047],["å±ħæ°ĳ",-10.09311555278562],["èĺĩ",-10.093338750798203],["ĠDur",-10.093376794254212],["ä½įç½®",-10.094015796818482],["Ġassist",-10.09475150939132],["eland",-10.095038939288631],["eople",-10.095488062241024],["Ġclos",-10.095714071092036],["mon",-10.095822510993758],["Ġreason",-10.09689221207566],["è±Ĳ",-10.096936750347073],["bar",-10.09728004475397],["æķĻåįĢ",-10.097327436213618],["ä¸¤ä¸ª",-10.097476837262562],["åİ»ä¸ĸ",-10.098427407145667],["soon",-10.098552919943014],["åĬŁ",-10.098866401766722],["Ġconduct",-10.099129892517391],["ery",-10.09935503987156],["Edward",-10.099419815304676],["ä»¥ä¸ĭ",-10.099572122700806],["collection",-10.100141125697236],["Ġspace",-10.100183886601831],["ĠCD",-10.10029990345636],["nine",-10.1006708789551],["åĲĽ",-10.100795067887102],["voice",-10.100848549102407],["éĽĨåľĺ",-10.100979497283204],["1000",-10.101858835322387],["ä¸ĸç´Ģ",-10.102030275201486],[";}-",-10.102402924992337],["Ġroad",-10.102504686401293],["è¡¨æ¼Ķ",-10.102565469552548],["åħ¶å¾Į",-10.102615442240497],["ĠLife",-10.102887695027626],["erry",-10.103585413474876],["è¶ħè¿ĩ",-10.103700953744848],["Ġreduc",-10.105174795521918],["crease",-10.105589614800245],["head",-10.10617533664751],["ä½Ķ",-10.106219771829473],["é±¼",-10.106334715829536],["åľ°çĲĥ",-10.106439122968744],["æĭľ",-10.106456547820724],["Ġdocument",-10.106570767716317],["DVD",-10.106587969597026],["å»ºç¯ī",-10.10680880866181],["åĸ®ä½į",-10.106851879009662],["bourne",-10.10692630284002],["ĠMil",-10.10698251448185],["åħ©äºº",-10.107253939233887],["éĬĢ",-10.107829536261525],["ide",-10.108145298651918],["åį«",-10.10827975208851],["è¿½",-10.109265042477762],["å¹´éĹ´",-10.109696565654286],["writing",-10.109745343269523],["ier",-10.110111459736007],["çı¾",-10.110449928032589],["ä¹ĥ",-10.110857436407466],["ĠCam",-10.11176565345032],["åĳĪ",-10.11183933272503],["é£¾",-10.11231501261797],["Ġtrans",-10.11247770218609],["å¼Ĺ",-10.112525215846876],["æľºè½¦",-10.112553933556368],["æĮī",-10.11280160984548],["çīĽ",-10.112820752418472],["regard",-10.11296244331728],["ä¿ĿæĮģ",-10.113165135247256],["Ġbur",-10.113560848065212],["ĠFilm",-10.113589508686308],["set",-10.113652192906578],["éĽĦ",-10.114599386502096],["ĠOrd",-10.115120970531162],["Ġadopt",-10.115704827825608],["ç§¦",-10.116009390729392],["ddress",-10.11630731949601],["ca",-10.117184434283502],["Ġplane",-10.11752316360532],["Ġbreak",-10.117816542450718],["Ġbank",-10.118060402131224],["è´Ŀ",-10.118324443851652],["FC",-10.11833590752878],["è¥¿éĥ¨",-10.118477391005014],["å¯«",-10.118765207999452],["åĲĥ",-10.119190717030776],["Ġfacilit",-10.120319559110069],["ett",-10.12038750725736],["ç©¿",-10.120461346930885],["ag",-10.120852728673526],["è¿Ļç§į",-10.122169583918792],["å®ĭ",-10.12228188826422],["Second",-10.122347767854627],["col",-10.122375120331508],["åĲ³",-10.122379842474023],["Ġrefer",-10.122746397436106],["Ġ978",-10.12299540411261],["Ġsuff",-10.12392077468842],["Ġsign",-10.12464443618016],["ible",-10.1253014792556],["Ġidea",-10.125428008431324],["é£ŀ",-10.125450397098378],["æĭįæĳĦ",-10.125536836775524],["eeting",-10.126294854591483],["ĠPrince",-10.126533932280031],["åıĭ",-10.126914485855744],["Ġtrade",-10.126949901610882],["Ġselect",-10.127079260118895],["Ġentr",-10.12727730114169],["ĠWal",-10.127280126876911],["ĠMu",-10.127655774972762],["çĭ¬ç«ĭ",-10.127742666111663],["è¦ĸ",-10.128044364399514],["ĠCor",-10.128196945237056],["æ¼ĶåĶ±",-10.129087852816422],["Ġspecific",-10.129375672198176],["çļĩå¸Ŀ",-10.129615239036582],["éĦī",-10.129662744418054],["éŃ¯",-10.129761973172664],["ä¾ĭ",-10.12976217289871],["ĠSpan",-10.13042269522978],["ginning",-10.130870674344088],["å¹¶åľ¨",-10.130979294338657],["ĠBoy",-10.13178493728769],["ä»¥ä¸Ĭ",-10.131876088636671],["plain",-10.131913614034218],["scene",-10.132147194598575],["surface",-10.132162502835447],["çŃīçŃī",-10.13239575699691],["å®ĺæĸ¹",-10.132675635567288],["q",-10.132690814137376],["ala",-10.133198911765904],["èĪª",-10.133617677870628],["Ġrefu",-10.133815238779498],["Ġeff",-10.134118742527942],["ĠSam",-10.134523771210649],["åħ¬å°º",-10.135199539653971],["Football",-10.135201133786047],["åĤ·",-10.135260514673217],["girl",-10.13529300726119],["ä½©",-10.135327111432792],["Ġ31",-10.135926242860355],["iano",-10.136401545566391],["åı¦",-10.136715142813166],["wa",-10.136751457514254],["Ġsports",-10.136790939278924],["å¾ģ",-10.137773875284],["Ġindustr",-10.13824157551378],["western",-10.138362098145262],["æĿ¥èĩª",-10.138828594598396],["Ġop",-10.139720923441931],["çĤ®",-10.139879714541728],["von",-10.139917311832484],["onto",-10.140077539691465],["è»įäºĭ",-10.140154460004254],["å¢ĥ",-10.14052889751354],["ĠPol",-10.141000714092884],["çĽ¸åĲĮ",-10.14105899285862],["Ġequi",-10.141290459993584],["owner",-10.14184893809181],["æĪĸèĢħ",-10.141863619977713],["Ġstat",-10.142212102621173],["ä¿Ħ",-10.14226094398769],["box",-10.142937367295032],["43",-10.143104956179762],["æħ¶",-10.143350991400322],["ready",-10.144090325835794],["âĢ",-10.14417590190011],["å¨ľ",-10.144187945765536],["æ¨¹",-10.14445774077984],["ht",-10.14457305124613],["æĪĲåĳĺ",-10.145966244284946],["æ¾¤",-10.146030468057624],["Ġ50",-10.1461453633972],["åİŁæľ¬",-10.146264903088635],["éļ¨å¾Į",-10.147092871160764],["å°İèĩ´",-10.147123823182994],["ä½įæĸ¼åį",-10.147351560449202],["key",-10.148047600427669],["Ġstreet",-10.14816837132831],["Ġinterview",-10.14824573966736],["lies",-10.148377066301844],["Ġsett",-10.1488638778091],["å°İæ¼Ķ",-10.14906921323671],["åľ¨æŃ¤",-10.14949335719488],["è¿Ļæĺ¯",-10.149534018608932],["å¤į",-10.149702222673778],["sources",-10.14992995038196],["å·¦åı³",-10.150317580624789],["åĩ»",-10.150539408832016],["Ġdraw",-10.150768936959764],["éº»",-10.150855786091109],["aland",-10.151014730785278],["NBA",-10.15122502131025],["ĠSu",-10.15171587965336],["ĠPlanet",-10.151719607040215],["ĠPro",-10.152067937481103],["medical",-10.152395102501425],["Ġheav",-10.152568927275327],["ä¹ī",-10.15266185990292],["åıĬåħ¶",-10.153183989856736],["mention",-10.15320070317912],["ãĥ",-10.153633500542597],["çµĦæĪĲ",-10.153894333079066],["ç¶ĵæ¿Ł",-10.153980974131027],["åºĦ",-10.15444828236092],["Ġabo",-10.154598872388416],["åľ°ä¸ĭ",-10.154659973763],["house",-10.154701091633164],["è¨Ń",-10.154797715836608],["ä¸Ģæ¨£",-10.15509279972493],["ĠRecords",-10.155093693185105],["ç§»",-10.15553821567929],["Ġcard",-10.156066588680217],["pplication",-10.156257507182008],["è®¸å¤ļ",-10.15637372554954],["Ġcost",-10.156726590785908],["éĽ¢",-10.157155495109167],["å¥¹çļĦ",-10.1573407732239],["Ġcross",-10.15751911369178],["è£Ŀ",-10.157720413918709],["æĳ©",-10.157728022687657],["å¯§",-10.157919633293517],["èĢĮåľ¨",-10.158096212925422],["ãĢĬãĢĭ",-10.158266081532677],["Ġquestion",-10.158310828499529],["La",-10.15892708172727],["è¨ĺ",-10.15899722933368],["äº²",-10.159753609442468],["å°ıæĹ¶",-10.16028849928373],["ĠVol",-10.160892486508198],["ac",-10.160955609855812],["Ġparent",-10.161280875180964],["éļ¨èĳĹ",-10.161460176115634],["ç»ıè¿ĩ",-10.16155340177623],["é£Ľæ©Ł",-10.162669841629407],["FA",-10.16321948421522],["health",-10.163388211184111],["åĬĽéĩı",-10.163569926373786],["pent",-10.1635763584649],["çĶ·åŃĲ",-10.163599480917174],["èĻ½çĦ¶",-10.164566467786091],["åŃ¦çĶŁ",-10.164809071559034],["ç¬¬äºĶ",-10.16509068893608],["of",-10.165674885741884],["ved",-10.166077396505944],["é¢Ĩ",-10.16654576432673],["èĢ¶",-10.166624288824568],["Division",-10.166690877237992],["æīİ",-10.16723432601844],["å½¢å¼ı",-10.167431642199992],["ating",-10.167467156322097],["éģĤ",-10.16789592712119],["ç»Ĩèĥŀ",-10.167949400158722],["ĠPer",-10.168227813715994],["ĠOffice",-10.168376912306233],["åĳĬ",-10.168533165551132],["Ġdeliver",-10.168702969820895],["åħ´",-10.16932016456354],["ino",-10.169455385675828],["Ġfront",-10.169612371152676],["åħ¨åľĭ",-10.170123157727236],["Ġstatu",-10.170124310362084],["ç¬¬ä¸Ģæ¬¡",-10.170812963263373],["é¦Ĩ",-10.170872962485117],["æľĿé²ľ",-10.171074758112976],["âĨĴ",-10.171213402106918],["æ©Łæ§ĭ",-10.171234251818142],["æĸ¹æ¡Ī",-10.171620679122876],["Ġprivat",-10.172727023325324],["Ġlegal",-10.172803669170827],["Ġcit",-10.17280779968915],["89",-10.17300188475079],["John",-10.173200511865677],["adel",-10.173232925690176],["åī§",-10.17328623896017],["page",-10.173423641138712],["æĹĹ",-10.173523900447922],["type",-10.173747863997452],["Ġfar",-10.173759536338444],["Ġchart",-10.173782279176791],["çµĲæŀľ",-10.173844382875544],["ken",-10.17414747138108],["å®ĹæķĻ",-10.174179006604303],["05",-10.174184883995704],["æ²ĥ",-10.174323310423189],["eadership",-10.17449761390015],["å¯¼æ¼Ķ",-10.174654083899064],["ron",-10.175315964510672],["ä¸¦æĸ¼",-10.175613897335104],["è³ª",-10.1757535974115],["Ġran",-10.175828988953402],["æµģè¡Į",-10.17642230222244],["ber",-10.1767632807275],["æ»¿",-10.17679340275699],["æ±ł",-10.176881249174912],["ĠCamp",-10.177025339435207],["pa",-10.177671326742509],["å¸Ń",-10.177675582252524],["éĢīæĭ©",-10.177930028931137],["Joseph",-10.177988989977893],["åľĴ",-10.178553338750897],["è¾¾åĪ°",-10.178563193321036],["è·¯ç·ļ",-10.179287779318445],["åįł",-10.179938362552646],["Ġfinanc",-10.180272161309055],["ameter",-10.180298765551283],["èģĶåĲĪ",-10.180977239135522],["éĻĦ",-10.181001881999224],["çİ°",-10.18108782757272],["acific",-10.182390086906778],["æĭ¥æľī",-10.183066814011903],["ä»Ģ",-10.183242020112129],["Ġgen",-10.18381491154249],["Ġobservation",-10.183887486119357],["Ġriver",-10.184672593129816],["ig",-10.184758018067626],["é¡¹çĽ®",-10.184796934523812],["ological",-10.18492825873335],["times",-10.1850987889767],["çļĦä¸»è¦ģ",-10.18528703557844],["itude",-10.185349551192353],["åĩºçĶŁ",-10.185388911683669],["ĠSea",-10.185841623864558],["é½Ĳ",-10.185963675941393],["Ġcivil",-10.186019345482592],["æ°ĳä¸»",-10.186455527636287],["æŀģ",-10.187674111038408],["Daniel",-10.18826697120647],["Ġapproach",-10.188446523102524],["åŁ·è¡Į",-10.18853904321636],["ĠMark",-10.18858443524072],["æ¯Ķè³½",-10.188717315210894],["æĭ¿",-10.188971093348837],["180",-10.189113760928745],["ĠAfrica",-10.189587733218948],["Ġstop",-10.189771968204193],["ensu",-10.189864982917872],["æŃ£åľ¨",-10.190355598289033],["éľĢ",-10.190416015544146],["Ġgrand",-10.190700086842734],["åīĩæĺ¯",-10.19070589358111],["afety",-10.190859250608671],["ama",-10.191479246604882],["éļıçĿĢ",-10.191684282006008],["åĨĽéĺŁ",-10.19197105862419],["è¯·",-10.192269117150186],["ets",-10.192357456285338],["åĽĽå¹´",-10.19239383085656],["tention",-10.19270183227631],["éĵģ",-10.193222067144545],["Ġmass",-10.193335760162206],["å®£",-10.193786994820137],["hood",-10.194091035968889],["Ġcentral",-10.194366801631052],["èīºæľ¯",-10.194386446475184],["åŁºæľ¬",-10.194547664366713],["ext",-10.194676949922975],["èĻİ",-10.194734903371074],["åĲ´",-10.19481672409017],["Ĺè¨Ńå¾ĹèĺŃç¾¤å³¶",-10.194863115698332],["......",-10.19505676277907],["ĠLove",-10.1950637991977],["çķ¶ä¸Ń",-10.195401165887969],["å£«éģĵ",-10.19601939856311],["Ġcast",-10.196684921346584],["ĠMc",-10.196932825301314],["å¤§éĥ¨åĪĨ",-10.196985663950368],["ä¿®æĶ¹",-10.197266111565916],["ä¸įæĺ¯",-10.197362548645984],["150",-10.197483769666515],["ãĢ",-10.197615310497362],["ĠWe",-10.197875100157985],["è¨±",-10.197932837648832],["èĹį",-10.19813061182774],["Ġsea",-10.199283805557664],["ç¤¼",-10.199314404184232],["Ġfunction",-10.19954670840712],["åľĵ",-10.199683478932808],["ĠSp",-10.199705023546633],["SR",-10.200239379938374],["èĩ³ä»Ĭ",-10.200349236528613],["car",-10.20037943853454],["teach",-10.200445276522368],["æĸĻ",-10.201666915765868],["äº§",-10.201707202288638],["Ġacid",-10.202001745430742],["Ġtoo",-10.20220692012149],["po",-10.202598819562848],["love",-10.202627734452092],["åı«",-10.20269170907611],["ĠCa",-10.20290566078824],["è¯Ńè¨Ģ",-10.20300794020746],["æ³ķéĻ¢",-10.203420298357916],["Ġassociat",-10.203888884458973],["æĺ¯åĲ¦",-10.204006109903268],["82",-10.204018504106308],["94",-10.20413809011677],["å¼ķæĵİ",-10.204630267475864],["åįĬå³¶",-10.205126275421268],["186",-10.205922818667425],["éľ²",-10.206179575231566],["des",-10.206327492135072],["éĲµ",-10.206475280394985],["ĠCha",-10.206604606569533],["èĤ¡",-10.20666104293428],["250",-10.206924475464676],["è§Ĥ",-10.207964700373438],["ĠBill",-10.208779827135643],["tp",-10.209179172728607],["als",-10.209393823433444],["burgh",-10.209518967204492],["Ġboy",-10.209561887223511],["ise",-10.20972076952701],["ĠBank",-10.209891004566863],["ç¦®",-10.21036729268488],["claimed",-10.210537169816364],["special",-10.210728885708534],["æŃ·åı²",-10.210759613064637],["æĺ¯ä¸ĢåĢĭ",-10.210791133006207],["å¤§åŀĭ",-10.210848047708703],["inner",-10.211193188513413],["06",-10.211396202003751],["æĢ¥",-10.211455487761114],["ĠFree",-10.211485143843838],["åįĶåĬ©",-10.212119691745926],["æ¥Ĭ",-10.21212704185128],["ĠMon",-10.212367285944657],["å·´å£«",-10.212727911733388],["æĻ®éĢļ",-10.21311267970816],["éĽ»åŃĲ",-10.21392294069806],["ble",-10.21394532120508],["thus",-10.214275266912496],["87",-10.214659744327742],["MS",-10.215499776863115],["Ġdispla",-10.21557376668655],["åħ¸",-10.215715140086028],["Saint",-10.216627716045023],["bury",-10.216719896673265],["åħĥå¹´",-10.216808058837742],["æĹ©æľŁ",-10.2171009915818],["åĪĨåĪ«",-10.217587092455028],["hould",-10.217605889515651],["Ġbirth",-10.217684555495676],["ä¸Ģå¹´",-10.21801930215316],["let",-10.218339427112316],["è´¹",-10.21835582842797],["lie",-10.218383971073534],["ĠEm",-10.218694082709083],["do",-10.218779994272708],["çķ°",-10.2189365477347],["Ġsimpl",-10.218983278451931],["åı°åĮĹ",-10.219060958451593],["link",-10.219237128399724],["argu",-10.219315000006798],["çĶ¢",-10.220669360447268],["çłĶç©¶æīĢ",-10.22130008778044],["ç¼ĸ",-10.221315102646727],["ä¸įä¹ħ",-10.221318224957232],["Ġsp",-10.22139299871735],["åĢĭäºº",-10.221423158241624],["min",-10.222064887399169],["åĩºä»»",-10.222111007298626],["learn",-10.222275061008649],["ĠKan",-10.222305328009384],["ĠMaj",-10.222310550980264],["å°Ī",-10.222330395080313],["ç§°ä¸º",-10.222765813800722],["ut",-10.222796824732912],["centre",-10.22295628753908],["æº«",-10.22307120944535],["æ¯Ĵ",-10.223188935419358],["è£ħ",-10.223605717188644],["åİĤ",-10.223840091522264],["lu",-10.223843732174956],["æĽ¾ä»»",-10.223944926274386],["ĠOlymp",-10.224197682309107],["Ġvol",-10.224370660057566],["ya",-10.224475865759295],["æ§į",-10.224615047712964],["Ġfund",-10.224985111699466],["åĴĮå¹³",-10.22509808858884],["éĻ¸è»į",-10.225737439029531],["èĳĹåĲį",-10.226058212216213],["èĹĿè¡ĵ",-10.226427394153284],["éĢĻç¨®",-10.226478717369467],["actor",-10.227202429095996],["ems",-10.227559596794164],["Ġflow",-10.227767312186476],["åĪĨåŃĲ",-10.228107180228168],["çĪ¶è¦ª",-10.228172284281872],["shot",-10.228516886477989],["æŃĲ",-10.229206618753526],["Ġexpress",-10.229473449433838],["åľĺé«Ķ",-10.229648841520268],["obtain",-10.229746790174024],["toge",-10.22976865782656],["Ġobject",-10.230006869422766],["mediate",-10.23001984241088],["å¶º",-10.23010119638896],["è«ĸ",-10.23013958504874],["Ġapproximate",-10.230530279651685],["log",-10.23073478613718],["ow",-10.231029491386266],["ĠBen",-10.231113725066487],["alo",-10.231289539292964],["å¾¡",-10.23129570414769],["æķı",-10.231305538330076],["Ġrest",-10.231439533078488],["ou",-10.232184592149151],["aries",-10.232593756089743],["æĪ¶",-10.23278358599596],["ä»Ļ",-10.232973466220685],["èĥ½å¤ł",-10.233195611560102],["Ġdestroy",-10.233196216684286],["æľªèĥ½",-10.233721452265744],["boat",-10.233745829246054],["éĿĪ",-10.233757303745092],["ĠWhi",-10.233854489688731],["ittle",-10.23407652046967],["ä¿ĿèŃ·",-10.234198948814065],["ositive",-10.234254477327053],["Ð",-10.234350161470378],["å¸ĥæĸ¼åįĹç¾İæ´²",-10.23489000577844],["ä¸»æ¼Ķ",-10.23510321910612],["å±¤",-10.235380650752614],["Ġemploy",-10.23557280253424],["79",-10.235803666130153],["å¼Ł",-10.235823950342883],["ä¼ļè®®",-10.235857337657889],["éĽ£",-10.235907451362843],["Ġtraditional",-10.236222063751686],["ĠLake",-10.23624537954909],["stein",-10.236437522081266],["è¾Ľ",-10.236622711086884],["ä¸ĵ",-10.236715478676697],["æµ¦",-10.236772321170186],["åĬĩ",-10.237124723703271],["andidate",-10.237372449919452],["è½½",-10.237457343838296],["ĠNam",-10.237606937183171],["é§Ĳ",-10.237620145870933],["Ġcap",-10.237702613143874],["éĵ¶è¡Į",-10.237952003562906],["Republican",-10.23848023535654],["ĠVan",-10.238575462498726],["keep",-10.23908227863879],["ny",-10.239106822383366],["æĢ§çļĦ",-10.239321125632042],["çĶ»",-10.23939398411066],["ä¸įåĲĮçļĦ",-10.239609361360593],["Ġfact",-10.239703592251423],["Ġextens",-10.23974569968474],["Ġmanufactur",-10.239997100158623],["channel",-10.240338748623884],["08",-10.24037610949441],["åħ¬åľĴ",-10.240418335413052],["åħ¬ä¸»",-10.240448557317926],["åı·çº¿",-10.240979412007771],["Ġ184",-10.241068852471995],["éĽ¢éĸĭ",-10.241291302970742],["ĠSch",-10.241298576674312],["going",-10.24140282553784],["branch",-10.241538392540528],["ĠRock",-10.241805530672549],["ency",-10.242118288308577],["è©©",-10.242420648743735],["è´Łè´£",-10.242595494861904],["ĠWil",-10.243194092052049],["ä»»åĭĻ",-10.243364395416291],["ä¼¦",-10.243639793243338],["æłĳ",-10.24375040857176],["æĸ°åĬłåĿ¡",-10.243909759164934],["ĠSystem",-10.243927572605964],["ending",-10.24401475977482],["éĥ¨éĺŁ",-10.244431361207951],["Ġmagn",-10.244431846974056],["edition",-10.244737321556553],["ç©Ĩ",-10.244955560514471],["æ²Ĵ",-10.245239404446457],["éĽ»è¦ĸåĬĩ",-10.245643385310808],["ĠHol",-10.245821369948333],["æĪĸæĺ¯",-10.246409462647318],["lay",-10.246451981897668],["ä¹ĺ",-10.247028505179465],["æ¾³éĸĢ",-10.24751891384854],["è¯Ŀ",-10.247790855481446],["æľīèĳĹ",-10.248468018129849],["çĽ¸çķ¶",-10.248653409581852],["éļ§éģĵ",-10.24980862810693],["æĽ¾ç¶ĵ",-10.249829007912036],["Israel",-10.249879104679824],["éĽ¶",-10.24988969924227],["æŃ¦æ±ī",-10.250290028721976],["oon",-10.250471594535542],["éĻ¸",-10.250567714070284],["åĽłèĢĮ",-10.250811365979771],["Ġparticipat",-10.250944386872495],["âĢĿãĢģâĢľ",-10.251246430134636],["åįĶæľĥ",-10.251389266301604],["è¶³çĲĥ",-10.251937291128712],["uty",-10.252194948299568],["96",-10.253055948641292],["å¼ķèµ·",-10.25375777585525],["æĺ¯ä¸Ģä¸ª",-10.253942650807868],["phia",-10.254080671862049],["çķ«",-10.254270875848611],["åĩ±",-10.254498984030771],["ç¦ģ",-10.254695140898043],["*",-10.254740091820445],["Venezuela",-10.254740093277924],["for",-10.254783865636108],["Research",-10.254800482651252],["Ġrespons",-10.255293471103151],["æĸĩä»¶",-10.255395484853562],["route",-10.255516610207758],["æĽ¾åľ¨",-10.25553271631622],["æŃ¤åĲİ",-10.256058626684966],["æĽ´æĸ°",-10.256339847684163],["æľĢå¤§",-10.256821793973232],["æĺİæľĿ",-10.25689326297941],["increas",-10.256990615871604],["taking",-10.257036368465243],["Ġgun",-10.257202899136534],["ado",-10.25735968611367],["æ²¿",-10.257457990640546],["åĦ¿",-10.257686937238867],["ond",-10.25809852594432],["Ġreve",-10.258164116292225],["ç§ģ",-10.25835850069327],["solution",-10.258594681654904],["Ġacqui",-10.258890382237334],["ake",-10.259061248710395],["ĠItalian",-10.25911815240906],["ater",-10.25937403721218],["Ġpartner",-10.260329999965672],["éŃĶ",-10.260359971301114],["ç§ĳåŃ¸",-10.26095710624362],["çļĦç¬¬",-10.261014163854393],["å¨ģå»ī",-10.26140497598416],["çīµå¼ķçĶµåĬ¨æľº",-10.262029450089695],["Government",-10.262076248984927],["ĠLong",-10.26208061469345],["staff",-10.26219466938738],["ä¿ĿæĬ¤",-10.262241066621456],["çº¿è·¯",-10.262308171018097],["éļıåĲİ",-10.263023678580526],["hic",-10.263452772784143],["å·´é»İ",-10.263984681427564],["07",-10.264111843344937],["iv",-10.264620173550504],["æ´ª",-10.265994741605358],["æ¼ĶåĶ±æľĥ",-10.266323710290925],["åħ¬å¸ĥ",-10.26638424894901],["æ¼Ķ",-10.266549267318371],["æľĢå¤§çļĦ",-10.266692141217234],["åıįå°į",-10.267063973961177],["ä¸ĢåĲĮ",-10.26715919879234],["MA",-10.267723618376394],["çı¾åľ¨",-10.267952814460797],["Ġsoci",-10.268187403103942],["æĸ¹æ³ķ",-10.26831913676106],["ck",-10.268765285542834],["ç¹¼",-10.268967517246894],["Ġsound",-10.269130863658344],["èĭ±éĽĦ",-10.269270942506983],["åºķä¸Ńå±¤",-10.26936565465691],["ä¿¡æģ¯",-10.26942471628328],["æĿĢ",-10.269494720138304],["ph",-10.269707518600534],["æŁĲ",-10.270094356164172],["è§Ģ",-10.2704844835094],["Ġhu",-10.27120772267324],["åıĳå¸ĥ",-10.271437718186997],["tended",-10.27155275522534],["ash",-10.272506605667182],["å®Į",-10.272881044278154],["73",-10.272979793865137],["éĽĨåĽ¢",-10.273092325026225],["religious",-10.27325269914932],["åĪ¶éĢł",-10.274012463078629],["éļ¨",-10.274151682944453],["å¥ı",-10.274359724269647],["ä½ľçĶ¨",-10.27440769219843],["Ġstep",-10.274505677836956],["çµĲæĿŁ",-10.2747856287928],["æĬķåħ¥",-10.27539507484108],["ĠBut",-10.275506854242126],["ĠPar",-10.275813119444528],["åºĨ",-10.27622285199961],["ãĢĤãĢĬ",-10.276279373037427],["éłĨ",-10.276444762528657],["ç§ĳæĬĢ",-10.276520980244388],["å¹´éĸĵ",-10.27662626367935],["ĠDa",-10.27688104502204],["patient",-10.277222588982838],["Ġconstruct",-10.277800348446004],["Whe",-10.277852679358428],["èŃ¦å¯Ł",-10.278178888535075],["Follow",-10.278302671942305],["Los",-10.278384620412176],["ĠPrime",-10.27858115632989],["ization",-10.278694789644533],["situation",-10.279012924137962],["Ġconcer",-10.279373682984245],["åĪ»",-10.279394619808338],["ari",-10.279518089238389],["800",-10.279994183416024],["éģĵè·¯",-10.280710051634813],["Ŀ",-10.280901818730133],["èĻķçĲĨ",-10.281200804987176],["ĠScot",-10.28145960044642],["gar",-10.281683897163504],["ç¶ĵéģİ",-10.281866333411337],["om",-10.282199777330852],["è¯Ĺ",-10.282219448609094],["hk",-10.282360484779094],["èĪŀ",-10.28256948109969],["ĠJack",-10.28290329657336],["é«ĺä¸Ń",-10.282910431198],["èģĮ",-10.283146442097184],["Ġsqua",-10.283263253818664],["ĠKar",-10.283766112526903],["oul",-10.283867196553354],["ĠRi",-10.283889476404443],["åĪĨæŀĲ",-10.28429489711982],["æľīéĹľ",-10.284649484485303],["è½´",-10.285091987481405],["çµĲ",-10.285476194635269],["New",-10.28549164891982],["ĠTom",-10.285635806687562],["71",-10.285781890830634],["åħ³ç³»",-10.285999140034493],["æĪ·",-10.286083190663536],["çĽ¸éĹľ",-10.286399671969518],["çĶµè§Ĩ",-10.28664077493045],["ji",-10.286945683316809],["ĠSir",-10.287777414727117],["å¹³æĸ¹ç±³",-10.287840184999869],["éŃļ",-10.287888340846084],["ä¸Ģä»¶",-10.288075122265592],["Ġletter",-10.288349220805852],["oose",-10.28835817134484],["ä»¥åĮĹ",-10.288700331144367],["part",-10.288712335279138],["ä½ľæĪ°",-10.2891748139077],["äºĶå¹´",-10.290023519601746],["æŁı",-10.29102496493929],["science",-10.291406384377057],["51",-10.29162460365366],["ugh",-10.291686539617109],["èĮ¶",-10.291722654811728],["åªĴé«Ķ",-10.291742229238588],["è£½éĢł",-10.29200563313023],["æľ«",-10.292115099152849],["ker",-10.292904041473848],["çĶµåĬĽæľºè½¦",-10.29353840893781],["ĠArab",-10.294008394440755],["åĿĲ",-10.295145284647946],["æııè¿°",-10.295405579588838],["éģ¸æĵĩ",-10.295497579703271],["Ġnumer",-10.295598920289848],["Ġprevent",-10.295608627619574],["ternal",-10.296129406030712],["Ġmeasur",-10.296202730331064],["æ¬§æ´²",-10.296205152498938],["72",-10.296693039306293],["studio",-10.296814338140864],["ĠBur",-10.297165853492237],["vocal",-10.297254258422283],["ĠBattle",-10.297617713106046],["åĸľ",-10.298298015882086],["coast",-10.298421158659345],["atre",-10.298452037215924],["æ¦ľ",-10.298462390611352],["bo",-10.298771632210377],["å¼±",-10.29926631584957],["è§ĦåĪĴ",-10.29926808887522],["é¡¯ç¤º",-10.299289386480435],["Ġinfluence",-10.299343931124202],["Ġcommercial",-10.299413763083605],["Education",-10.299607878568125],["ĠGra",-10.299721651967666],["èĩº",-10.299809775176303],["ockey",-10.29991012809879],["41",-10.300205559453817],["ç¶ĵçĩŁ",-10.300253772525467],["éĢ±",-10.300270805338553],["xico",-10.30095550990387],["ori",-10.30103541564826],["éĤĦæľī",-10.30104803274594],["äººé¡ŀ",-10.301182874091932],["ĠGi",-10.30138684725396],["æĵļ",-10.302533501279171],["ional",-10.30269750638736],["Ġmaintain",-10.30312103299126],["å½¹",-10.303231832351004],["èģ¯çĽŁ",-10.303263252500862],["broke",-10.3035065083683],["ĠMiddle",-10.30372323467486],["Young",-10.303952901062187],["éĢĥ",-10.304331831813531],["å¾©",-10.304548160584917],["Ġboard",-10.304579743125784],["çļĦæĺ¯",-10.30474586015621],["teen",-10.304940529935266],["Ġsu",-10.305233435551305],["å£ģ",-10.305363455382569],["åıĤä¸İ",-10.30561524544046],["ances",-10.30568498687412],["ification",-10.30614161449914],["uck",-10.306368706400612],["è¿ĲåĬ¨",-10.3066368461828],["ike",-10.306806690719258],["æĺ¾ç¤º",-10.306887041586286],["åı¶",-10.30691755942046],["å±ķéĸĭ",-10.307111158023332],["åĭĿ",-10.30726634141392],["Ġsecret",-10.307297499891629],["æĵįä½ľ",-10.307362179899927],["board",-10.307427738282854],["uel",-10.30769637137835],["Ġcredit",-10.307767211049626],["iddle",-10.308015330057962],["aught",-10.308226112885087],["å°ıèªª",-10.30890076145107],["æĶ¹éĢł",-10.309922820077055],["Ġcollect",-10.31044245714806],["è®º",-10.3104706197084],["èį¯",-10.310474791256016],["æ®º",-10.310830834675066],["ä¸įåĨį",-10.311111506750372],["Ġra",-10.311304583249262],["åħ¬åħ±",-10.311459655051344],["æµ·å²¸",-10.311485955692122],["reas",-10.31165882612627],["åĲ«",-10.31172969608119],["å±ħä½ı",-10.31209059369936],["ĠCommission",-10.312596650615706],["é©»",-10.313966393027712],["ential",-10.3143844973224],["åĵ¥",-10.314476806531168],["gold",-10.315069202715906],["orbit",-10.31532949877638],["ft",-10.31564892960244],["movie",-10.315852594812718],["ä¸įå°ĳ",-10.316329816354823],["åĬłä¸Ĭ",-10.316837167816328],["Ã¶",-10.3169510418412],["ç¾½æ¯ĽçĲĥ",-10.318405372320584],["æĬĺ",-10.31841085491966],["Ġcouncil",-10.318431961449267],["åĩł",-10.318566691075162],["meter",-10.318596453884252],["æĪĳåĢĳ",-10.31866172775226],["Health",-10.318860284176862],["ort",-10.318935296463149],["enate",-10.319582021140608],["åĪĿæľŁ",-10.319618817548946],["æĦŁåĪ°",-10.319676314117968],["åĪ¥",-10.31978599905996],["wan",-10.319789153545113],["Ġrais",-10.31990577179412],["Le",-10.320046510283603],["ä½ľèĢħ",-10.320112853207537],["Ġhorse",-10.320139555310526],["èĥĮ",-10.3203816326513],["è¨Ī",-10.320529066910686],["ington",-10.320750896268166],["har",-10.32085198497676],["å®¹",-10.320868662382864],["ĠRadio",-10.321096847988237],["ĠPri",-10.32114916169239],["æĺ¯æĮĩ",-10.3214670229722],["èĤī",-10.322135293563068],["æĴŃæĶ¾",-10.32242128631789],["æĬ¥åĳĬ",-10.3226453380684],["å¹³åĿĩ",-10.322983845101168],["ĠHome",-10.323285947390325],["ĠOld",-10.32342239736506],["æĸ¼æĺ¯",-10.32348189925962],["ç§ĭ",-10.323614465436204],["Ġpast",-10.3237549257247],["Ġtemp",-10.32385947475369],["ita",-10.32407349436929],["nel",-10.324430166839846],["rates",-10.32495579588672],["ĠRail",-10.3252718287442],["é¦ĸéĥ½",-10.32546178982346],["azz",-10.326084278226258],["border",-10.326283509480492],["ç¦ıå»º",-10.326284589754696],["class",-10.326287861536864],["èĤ¡ä»½",-10.326462339494878],["Ġ40",-10.32693779120331],["economic",-10.32713255722908],["Ġfarm",-10.327202168294628],["Ġrelativ",-10.327489179659905],["ĠOx",-10.32812889952496],["æľĢæĹ©",-10.328169372431113],["å°ıè¯´",-10.328544896961546],["ĠJust",-10.329396016691266],["èĹ¤",-10.329897295211492],["Ġj",-10.329915321398122],["ä¿Ħç¾ħæĸ¯",-10.329943998092052],["effective",-10.330185820070554],["ç§ĳçļĦåħ¶ä¸Ńä¸Ģ",-10.330775226527273],["çŃīåľ°",-10.331093656480345],["çİ°åľ¨",-10.331457624021034],["åĮºåŁŁ",-10.331640726789503],["gon",-10.332009346034203],["ĠFound",-10.33201596756996],["ĠGames",-10.332594306604973],["åıĸä»£",-10.33271011427898],["nam",-10.332873188861054],["Ġshare",-10.333005314271178],["ip",-10.333142397076248],["rea",-10.333184670339543],["typical",-10.333277033321782],["olo",-10.333366625098428],["84",-10.333869038673626],["å¿ħéłĪ",-10.334038769783133],["crew",-10.335116479948024],["ather",-10.335234607983306],["with",-10.33536533524983],["Ġeditor",-10.335369621948717],["actual",-10.33546848456814],["DS",-10.335585878880202],["Ġmedal",-10.335710234658496],["ĠHan",-10.33571875944809],["ept",-10.33579809971297],["è¼ķ",-10.33613751957932],["Ġbar",-10.336371210426172],["æİī",-10.336650019503557],["è¯į",-10.337311258318527],["ä¹Į",-10.337817877135825],["é¥°",-10.337891529788656],["çĽ´åįĩæ©Ł",-10.337963868829636],["ĠVer",-10.33835702789938],["æľĥèŃ°",-10.338384672725962],["Ġoccasion",-10.33843915572923],["å¾ħ",-10.338713251426594],["tell",-10.338787187647457],["äºİæĺ¯",-10.33891094694164],["aged",-10.339647048533028],["ç¶²",-10.339930144621537],["ĠWi",-10.340256490744302],["éĥ½æľī",-10.340462796883694],["èº«ä»½",-10.34079668487716],["èİ·å¾ĹäºĨ",-10.34080729485311],["åĲĮæĦı",-10.341079560046976],["åĨłåĨĽ",-10.341660594007324],["ä¸Ģç§į",-10.341724877993206],["æİ¥è¿ĳ",-10.341735631239825],["mark",-10.341757130748208],["èĵĭ",-10.341812714221104],["éĽľèªĮ",-10.341920627438736],["éĥŃ",-10.341936016775318],["é¢±é¢¨",-10.342185069791448],["worth",-10.342485491359795],["air",-10.34286934017076],["èģ½",-10.343531932793724],["Ġmiss",-10.343579684742275],["Ġagree",-10.34360085335024],["åĸľæŃ¡",-10.34417393232136],["ergy",-10.344403894517502],["çķ¥",-10.344496644178417],["æĻĤä»£",-10.344653263771288],["çĶ³",-10.345732246106431],["è¨ĵç·´",-10.345758803130495],["ç¶ł",-10.345808508462182],["ç®±",-10.345817514972747],["èıľ",-10.345894898743264],["éĻĲ",-10.345900171017224],["ç´įéģĶçĪ¾",-10.345901535671995],["èĭıèģĶ",-10.345958829128],["ç¾¤å³¶",-10.346246742025292],["æıĲåĲį",-10.346787599039564],["relationship",-10.346910513172643],["å²¸",-10.347003420368146],["ĠPublic",-10.34734797897841],["Ch",-10.347385843520293],["IV",-10.347422796457526],["ates",-10.347817820978063],["è®¸",-10.348071197364984],["enator",-10.348846391948722],["èĩ´",-10.349162652880398],["æ½®",-10.349397727892304],["çĴ°",-10.3495171797547],["double",-10.34958425456218],["æµ·å²¬",-10.349605364382017],["æıĲé«ĺ",-10.349671781431882],["CC",-10.349695181498095],["ai",-10.349763119787612],["ä¸¾è¡Į",-10.34979071895562],["onference",-10.349993204048088],["éĢŁåº¦",-10.350024614977738],["ä¸įè¿ĩ",-10.35018586326338],["ture",-10.350336889954873],["ĠStra",-10.350848044613016],["è½¦ç«Ļ",-10.351318120064512],["lands",-10.351515263630455],["Ġread",-10.351721872046824],["Ġsemi",-10.352017856893472],["itie",-10.352278423628544],["å»ł",-10.35232233147842],["æľīäºĽ",-10.352363225697442],["Man",-10.352719989756729],["Ġmusical",-10.353077191538445],["83",-10.353227433139985],["è²´",-10.353801551055644],["åħ»",-10.353915376466343],["rick",-10.354013836000163],["Ġclear",-10.354119160638742],["åĲįçĤº",-10.354365678767104],["mb",-10.354652687200618],["separate",-10.354786576614917],["éº¥",-10.354846257727068],["ĠAr",-10.35532020918781],["çĶŁåĳ½",-10.355505738226729],["åĨĽäºĭ",-10.35583876976866],["Ġchief",-10.356446967737272],["ĠBig",-10.356949172109196],["è©ŀ",-10.35732150167244],["Ġstandard",-10.35736076866548],["äººåĳĺ",-10.357538248321818],["åİļ",-10.357683143880166],["Ġminister",-10.357751434221626],["é¡¿",-10.3580326518717],["ä¿ĿçķĻ",-10.358285067080269],["è¡Ľ",-10.358808091147193],["piece",-10.358991785231709],["hans",-10.359032425423258],["sia",-10.35975047824947],["æĴŃ",-10.359831604896003],["åĬ¡",-10.360082681726688],["Ġtax",-10.36096760707229],["æĹģ",-10.361648182921243],["çĬ¯ç½ª",-10.361830437690188],["èĢ³",-10.3619238816681],["èĮ²",-10.361928819729044],["Ġmis",-10.362187901110149],["çĬ¯",-10.362323972157384],["å±ŀäºİ",-10.364075010605312],["æīįèĥ½",-10.364657975478696],["animal",-10.364948457417436],["Ġsuppl",-10.36517816713037],["çĭĤ",-10.36541395244388],["èĪį",-10.365665128015944],["è£½",-10.365711151709782],["åĲįç¨±",-10.36585229498952],["è«ĭ",-10.365854329580172],["play",-10.365855517257968],["ä»²",-10.365932610322638],["å®ĩ",-10.36596381940107],["å°¼æ³Ĭå°Ķ",-10.365965594995298],["patriat",-10.36596799924205],["lines",-10.366008857511725],["åĲĮæ¨£",-10.366035564985204],["ĠOut",-10.366392772870338],["dron",-10.36667887140047],["ä»»åĬ¡",-10.36707518208774],["æķ°æį®",-10.367561315989018],["æĺ¯æĹ¥æľ¬",-10.367855798544262],["Mountain",-10.368161454713636],["end",-10.368335485424538],["gins",-10.368371522151978],["ä¹ĭå¤ĸ",-10.36887878132852],["ĠYu",-10.36920980779049],["å°ıæĻĤ",-10.369501392770488],["èĥľ",-10.36971423038187],["tle",-10.369835922935035],["CD",-10.370020469287295],["åĽºå®ļ",-10.370204109441694],["ç¨ĭåºı",-10.370336234846745],["Ġexpan",-10.37035787380713],["æ´»",-10.37092045908856],["lier",-10.371028626412826],["lim",-10.371178084545893],["ĠCommuni",-10.371219226752917],["Ġviol",-10.371332092189924],["rough",-10.371606408081334],["Ġindicat",-10.371920001324394],["ĠMill",-10.372453017979778],["uff",-10.37249138558794],["çĽ´èĩ³",-10.373082907950014],["èĭ±æĸĩ",-10.37330818891548],["æį®",-10.373433841199958],["åĤĳ",-10.373613649748965],["åĪĢ",-10.374010626763445],["å¯ºéĻ¢",-10.37401891462715],["æ±ºè³½",-10.374104862417605],["æ¾³æ´²",-10.374123703876794],["takes",-10.374162259413794],["è¿·",-10.374318321845262],["å¤ĦçĲĨ",-10.374366972113377],["ĠGar",-10.3747604255785],["amous",-10.37510445663537],["TC",-10.375271107788478],["çĶŁçĶ¢",-10.376041657684578],["éłħ",-10.376405628542326],["04",-10.37756699645649],["åĨ·",-10.377589305168922],["æŃ¸",-10.3777380140283],["ç¢ĳ",-10.377944293833515],["ì",-10.378176062945132],["Ġblood",-10.378238674508498],["ĠLatin",-10.37824093908609],["å¾ĹçŁ¥",-10.378482566340754],["Ġtechnolog",-10.378533382339738],["judg",-10.37923473278774],["ĠWater",-10.37955086650898],["çľĭåĪ°",-10.379641530560074],["03",-10.379699851711896],["æĿ±éĥ¨",-10.379772409885536],["ä¸´",-10.379973746722978],["Ġjo",-10.38021901727662],["han",-10.380279399632313],["ĠBlue",-10.380599348763656],["è¡Ĺéģĵ",-10.38191989707598],["æİ¢",-10.381994679002336],["éģİåİ»",-10.382069334271051],["åŃĿ",-10.382208650329323],["æµĻæ±Ł",-10.382455372705838],["ä¸¾",-10.382602774364234],["ssel",-10.382666140608196],["æ¯įè¦ª",-10.382682611361655],["etwork",-10.382925901989552],["çļĦæĸ°",-10.38332854509648],["Ġhonor",-10.383687355758292],["ero",-10.383692270954082],["organ",-10.384130281080772],["åĩºçīĪç¤¾",-10.386240636509472],["éħ¸",-10.386493664491264],["æĪĳä»¬",-10.386687627553586],["ĠBrook",-10.38677319391404],["zed",-10.387571470342762],["ĠJa",-10.387626607830738],["Ġmedia",-10.387679373486158],["éļĶ",-10.387783497044014],["ĠTri",-10.387874598882668],["pitch",-10.388220298512511],["CA",-10.388527561930374],["èģĶéĤ¦",-10.388609862204138],["ĠLight",-10.38865445204394],["å¯¼",-10.388671149587964],["æĹłæ³ķ",-10.388677242416476],["Ġgradua",-10.389093084769009],["securit",-10.389415726509004],["ĠVe",-10.38953243161358],["Ġdiscuss",-10.389753656776644],["åħĴ",-10.389777748877954],["Ġsuper",-10.390094258351349],["Ġcons",-10.390198023840048],["æŁ³",-10.390504201580722],["è¥¿çıŃçīĻ",-10.39053302476975],["å¼ĺ",-10.390546057200908],["åĢŁ",-10.390574894991843],["vidence",-10.390914549717843],["åŁİå¢Ļ",-10.39121818186059],["position",-10.391674813201275],["map",-10.391734653492088],["å¸Ĥåł´",-10.391839632210754],["ä¸ŃåŃ¦",-10.391892308376091],["èŃ°åĵ¡",-10.392027028748648],["æ¼Ķåĳĺ",-10.392454081161649],["ä¸",-10.392924498439776],["ario",-10.393211708099738],["ĠCongress",-10.393550940785452],["Ġbus",-10.393577958802432],["Ġfee",-10.3936788087609],["Ġdon",-10.394162635146436],["con",-10.394174356805411],["lack",-10.39467363008157],["éª¨",-10.394677124147965],["åĸ®æĽ²",-10.394679763773558],["å»£åĳĬ",-10.39477069461703],["professor",-10.39477412785822],["dministration",-10.394774140206792],["Ġmurder",-10.394778474340884],["Ġmountain",-10.39487160605714],["scription",-10.394944129385271],["éħįåĲĪ",-10.394996231604852],["ç¬¬åħŃ",-10.396009351785567],["ç¦ģæŃ¢",-10.396049207570792],["Victoria",-10.396256621941234],["Ġcritic",-10.396431394622937],["cho",-10.396689919361704],["ç¶ĵå¸¸",-10.39687984069213],["Board",-10.397293347983512],["mmy",-10.397753430645492],["é³¥",-10.3978228095052],["Ġtext",-10.39792094104257],["ĠDan",-10.398285736780998],["éŁĭ",-10.39829776084564],["åĤĻ",-10.39852922546757],["09",-10.398805661463932],["platform",-10.398917068233589],["è¥¿åįĹ",-10.399016703995065],["Ġsurround",-10.399079820653498],["è¥¿æĸ¹",-10.39944065038848],["èĪīè¾¦",-10.399848000721894],["eball",-10.401760408839],["sband",-10.401978092569887],["ä½ľè©ŀ",-10.40216810891948],["æ»¡",-10.402223387784224],["Ġprotect",-10.402297131790553],["tre",-10.40256608708251],["å¼¹",-10.402583389444851],["Hong",-10.402591203912705],["ĠGe",-10.402799074975146],["å¯Ł",-10.402884983044968],["èĶ¡",-10.40293326097083],["åł±åĳĬ",-10.403270381583685],["è¨Ńç«ĭ",-10.40333915025424],["ĠTen",-10.403530770093418],["troop",-10.40355328572548],["knowledge",-10.403559436326187],["å»·",-10.40359881278174],["wick",-10.403605191670238],["ata",-10.404031684173384],["Ġru",-10.404749493009692],["Ġchampion",-10.404804219598814],["hu",-10.404828513907676],["å°ĨåĨĽ",-10.405031201615808],["ex",-10.405207812144656],["Ġstand",-10.405856996237151],["ĠQueen",-10.406572288280096],["Ġaccus",-10.4066974198232],["æĭĽ",-10.406981049698214],["ban",-10.40711420298362],["Ġnatural",-10.407196397647638],["IC",-10.40729951085476],["ç¥Ń",-10.407400527289534],["éĴ±",-10.407423435328038],["ended",-10.408098299702068],["ĠChe",-10.408270442256685],["Common",-10.408703005140184],["ĠSa",-10.408980036191892],["Ġdetai",-10.409344029756806],["lves",-10.409764628213347],["load",-10.409951548543958],["çļĦæķħäºĭ",-10.41029133780647],["æ¸©",-10.410750645790865],["åŃĶ",-10.41119753334362],["èµ¤",-10.41128252324103],["Ġdoor",-10.41182169688932],["Ġinstitution",-10.41311401156315],["companie",-10.413399929335222],["woman",-10.413483053084818],["kin",-10.413951925383309],["draft",-10.41406272334517],["ä¸Ĭæµ·å¸Ĥ",-10.414217225869171],["Ġuniversit",-10.414234649351654],["spect",-10.414348883536842],["trial",-10.414487435099073],["åı¬",-10.414843449890974],["sion",-10.41495136996667],["Ġcom",-10.415067422476708],["173",-10.415415103061909],["æ¼«çķ«",-10.41562862953698],["airs",-10.415856741177272],["Bulgaria",-10.415878898188655],["è¥¿èĹıèĩªæ²»åĮº",-10.415886390422235],["æĮģçºĮ",-10.415887335492108],["AF",-10.416045047337963],["èŃ·",-10.417533408696972],["äº¤æµģ",-10.417798408428068],["Ġcommuni",-10.418115033072503],["ç»ĵ",-10.418255880933852],["åĭŀ",-10.41860788901376],["graduate",-10.418967744081304],["hairman",-10.419347160411236],["BC",-10.41940339769448],["æĿ¯",-10.419429180403398],["Ġdrum",-10.419573205773524],["Bo",-10.419728132118165],["æĢ»ç»Ł",-10.41973425792644],["ä¸Ńæĸĩ",-10.419849394205388],["purpose",-10.420145783961893],["ä¸Ĭæĺł",-10.420163285980346],["å¾Ĺä»¥",-10.42030076335977],["äºŀæ´²",-10.42044656666057],["bel",-10.42055403571293],["ĠSh",-10.421579844130994],["åĳ½ä»¤",-10.422201427687613],["urvey",-10.422442141468364],["æ¦®",-10.423863376895202],["æ¨Ļ",-10.424001054378294],["Ġdedicat",-10.424229821323756],["åĸ¬ç§ĳç¶Ńå¥ĩ",-10.424437273964651],["æºĸåĤĻ",-10.424449023965243],["åģľæŃ¢",-10.424541431939618],["æĶ¹éĿ©",-10.424626894617264],["æĿĲæĸĻ",-10.424806738723875],["ls",-10.4248194982256],["ĠLibr",-10.42482054517973],["è¿Ľè¡ĮäºĨ",-10.425038620916604],["label",-10.425106387025036],["Ġcomment",-10.425268589501757],["Ġbasi",-10.425554259009598],["çĶ·æĢ§",-10.425618355983028],["ĠPlac",-10.42600610640509],["ç¾İè»į",-10.426510515741716],["Ġconcept",-10.426953078245258],["çı¾ä»£",-10.427389261798506],["standing",-10.42772950200806],["Berlin",-10.428185169727133],["ä¹Łåľ¨",-10.428416125146736],["èĴĻåı¤",-10.428715228161051],["ran",-10.428805153635828],["éĢĻæĺ¯",-10.428825203013377],["ini",-10.429676383718292],["ĠVa",-10.430039733784898],["ä¸Ģç¨®",-10.43014756769583],["ĠValle",-10.431174839231296],["è¾ĥ",-10.431568628646698],["åİĭ",-10.432323509522844],["sistant",-10.432636807780314],["ĠPh",-10.432777051324516],["ĠAu",-10.432803455677869],["uk",-10.433013101074405],["å»³",-10.433073782011183],["èĭ¦",-10.433082909275484],["ç¿¼",-10.4340607683103],["utes",-10.434618787542648],["æĻĭ",-10.434641007443664],["ĠAlexand",-10.434751645706916],["eastern",-10.435221160035354],["ĠSpecial",-10.43630126334726],["è®°",-10.436726377765416],["è·³",-10.437395474967026],["åķı",-10.437397043325529],["ä¼ģä¸ļ",-10.4374385435148],["Ġcapital",-10.437460301292148],["atabase",-10.437580381987637],["target",-10.437600545776824],["source",-10.43811018448464],["æĪĪ",-10.438397360929054],["çĪ¶æ¯į",-10.43863058085667],["ä¸Ģåº§",-10.438813128730256],["Ġprepar",-10.438997184068793],["éºĹ",-10.439172706499022],["ancer",-10.439973339078058],["æĺ¯ä¸Ģç§į",-10.440302546954294],["Ġrac",-10.44112314926733],["åĦª",-10.44125137499472],["æį¢",-10.441344103885088],["difficult",-10.441791261107916],["äºŃ",-10.441809927053397],["è·ĿéĽ¢",-10.441826204514328],["ä¹ĭéĹ´çļĦ",-10.442065566511882],["ä¹ĭä¸ĭ",-10.442510421281554],["81",-10.442755038895337],["ĠSuper",-10.4429161828734],["å¤§èĩ£",-10.443095964814423],["dark",-10.443279439453478],["Little",-10.44369557789466],["where",-10.443935576111208],["vo",-10.444153131632175],["çŁ¥éģĵ",-10.444444091308291],["rief",-10.444808572357044],["Ġwh",-10.44520889316446],["çªĹ",-10.445771178590396],["ç§ĳåŃ¦",-10.445828477746668],["è·¨",-10.446085080314804],["æİĮ",-10.446094954113336],["ĠBel",-10.446361090329043],["Ġestimat",-10.446435478658271],["She",-10.446666055703984],["pair",-10.447177930726934],["ç®Ģç§°",-10.447267255900652],["maker",-10.447348473371576],["çį¨",-10.44835009467754],["åĲ¬",-10.448421619233894],["ĠBer",-10.448481146352425],["reference",-10.448484540874098],["çĥı",-10.448698734978796],["percent",-10.448869724197555],["ki",-10.449177311932122],["æģ¢å¤į",-10.44938503962724],["åħ±äº§åħļ",-10.44952140085452],["All",-10.449676066438483],["ä¸ľåĮĹ",-10.450169311562531],["Earl",-10.45025014268864],["èĮ¨",-10.450596792110474],["åįģäºĮ",-10.450954013849852],["zyme",-10.451173838756642],["mate",-10.451198060065275],["æļĹ",-10.45144883293715],["çı¾ä»»",-10.451937458277127],["èĥĮæĻ¯",-10.452949618796854],["è³½äºĭ",-10.453114195980254],["bell",-10.453256635557096],["cow",-10.453288431575505],["éĥ¨ä»½",-10.453321714771084],["çī©ä¿ĿæĬ¤åįķä½į",-10.453560944895504],["æī¾åĪ°",-10.453760592364285],["las",-10.454142386813809],["ĠTu",-10.45415431257624],["Ġbel",-10.454536438769711],["çļĦå¤§",-10.454559072662942],["ä½ĽæķĻ",-10.454565116774711],["Ġhard",-10.454735204790229],["æķ¬",-10.454932457165294],["ä¸ªäºº",-10.454955972867388],["Ġcorrespond",-10.455007292620092],["æ¨Ļæºĸ",-10.45501234309627],["law",-10.45509704289378],["æ¯Ľå¾·çļĩåĲİåľ°",-10.455330205970071],["ç±»åŀĭ",-10.455906581449977],["ev",-10.456681459726624],["åĪĨéĲĺ",-10.457014456036593],["ĠWin",-10.45732228683905],["å¯¹äºİ",-10.45750240898806],["åľŁåľ°",-10.457996917719203],["ĠQu",-10.458337116412675],["ç°¡ç¨±",-10.458697255100986],["res",-10.458721820851377],["Ġprint",-10.458815068089862],["åĽº",-10.45919675880896],["ĠFox",-10.459359966072096],["æĮ¯",-10.459429164112173],["Ġlegislat",-10.45945835968844],["cast",-10.459486116097963],["åĬ¨çĶ»",-10.45953094343557],["op",-10.459577941589998],["å¤¢",-10.459652373949435],["grade",-10.459878038925131],["minent",-10.459916607820542],["ola",-10.459927411847534],["got",-10.460016401069806],["Ġdeclar",-10.460290355125908],["åıªèĥ½",-10.461214430363048],["è¿°",-10.461266380501543],["çĭĢ",-10.461790077758948],["å¿«éĢŁ",-10.461912923897524],["Ġdrop",-10.46247385035871],["èŃ¯",-10.46272277066902],["gency",-10.463662058025738],["municipal",-10.463916021288036],["åħĭæĸ¯",-10.464096600338005],["çĳŀå£«",-10.464155189708164],["ä¸ĭçļĦ",-10.464479652726444],["æĻļ",-10.464708129515593],["çĽ¤",-10.46471450033307],["rity",-10.46575833611774],["çļĦæĸ¹å¼ı",-10.465784357127813],["Ġsur",-10.466303167244911],["éħ",-10.46640181631043],["åĥ¹",-10.466699141989132],["US",-10.46706140219426],["soldier",-10.467504226684694],["light",-10.46789424592247],["èĤ¯",-10.467991650791216],["ot",-10.468076743619058],["è¬Ŀ",-10.468286341584278],["Ġterritor",-10.468343566298142],["ä»»å¤©åłĤ",-10.468414653753952],["é«ĺåº¦",-10.46842546536892],["ç»ĵæŀľ",-10.468460981002451],["latter",-10.46870862937622],["ä¸Ģæł·",-10.469224688278391],["ĠMal",-10.46937532594368],["éĿŀæ´²",-10.469628664888404],["åĪĬ",-10.469925305893089],["èŃ°",-10.470451379243364],["æĹĭ",-10.47071405556709],["peak",-10.470717215049127],["ush",-10.470877392413668],["å¸Ŀåľĭ",-10.471525320312857],["æĬĹ",-10.471757984123332],["Ġphoto",-10.472343793099958],["å¤ªå¹³æ´ĭ",-10.4723626048054],["è©¦",-10.472381733585358],["don",-10.472561293448615],["é¢Ĩå¯¼",-10.47262741712445],["èİİ",-10.472673256121944],["æµª",-10.472745373441324],["mitted",-10.472756488896511],["çĻ¼ä½Ī",-10.472931112284074],["åĨħå®¹",-10.473140604736288],["mond",-10.473800247090685],["æĶ»",-10.473904071190006],["Ġcomp",-10.474095337809558],["ä¸¾åĬŀ",-10.474188034404492],["çĶµè§Ĩåī§",-10.474825871071303],["know",-10.475313312540813],["uz",-10.475522157931051],["å¢ĥåĨħ",-10.475724075319157],["Ġresident",-10.475729724353751],["æľīåħ³",-10.476788901899658],["ashi",-10.47695288166036],["Asia",-10.477134462371415],["åĿ¦åħĭ",-10.477279786198348],["ato",-10.477432928591554],["éĢĲæ¼¸",-10.477434910697331],["ĠMid",-10.47765385969999],["åħ¬æ°ĳ",-10.478186963529154],["ĠCol",-10.478549950752676],["éģĶåĪ°",-10.478870102378917],["æĸ·",-10.479139021470653],["åĽŃ",-10.479400997414936],["ĠWilliams",-10.479477041637008],["Ġcolor",-10.479962514238384],["ĠPre",-10.480054939706124],["Ġengine",-10.480727512013566],["ç¦»",-10.480788825796465],["ĠVen",-10.480799760800917],["éĻµ",-10.481002454071344],["Town",-10.481638393056734],["ĠUnder",-10.481801280469377],["åįĵ",-10.4819406328152],["å®ı",-10.481991127670526],["å½Ń",-10.48200241931412],["è®¾å¤ĩ",-10.482018250602422],["çĴ°å¢ĥ",-10.482020275686937],["æĮīçħ§",-10.482049545467651],["æĬķç¥¨",-10.482093215741504],["è»Ĭç«Ļ",-10.482859714325684],["åİħ",-10.483017400119376],["èĪī",-10.483389078383862],["water",-10.483461552545556],["éĥİ",-10.483749907593722],["spring",-10.483772661022336],["ray",-10.484039362815404],["Ġdefin",-10.484512212377233],["Ġdistinct",-10.485212525407068],["Ġcompar",-10.485224576983082],["computer",-10.485591287648154],["å£ĵ",-10.485598183075735],["ä¼ĳ",-10.485624167481078],["ç®Ĺ",-10.485686882386478],["ĠFinal",-10.485716322967978],["tories",-10.485832389063887],["æĽ¿",-10.48584486457605],["é»ĺ",-10.486283814978254],["çıį",-10.486503866926263],["ci",-10.48675681831526],["gin",-10.487903247583048],["äº¦æľī",-10.487957547864262],["Ġcommission",-10.488528179889023],["ĠCro",-10.489297104601023],["è¡¥",-10.490053520981249],["çļĦä½ľåĵģ",-10.490062414902876],["ç§»æ°ĳ",-10.490212482146989],["arriage",-10.49053437340584],["å¿µ",-10.490750412371968],["åıĸæ¶Ī",-10.49098646215253],["èĺĩèģ¯",-10.49120865027908],["åĶ±çīĩ",-10.49122833830237],["Ġtransport",-10.491233858365163],["ĠDon",-10.49129392661682],["åł±å°İ",-10.491297482093604],["Type",-10.491340159388894],["ä¾Ľå¥ī",-10.491359268637767],["æī¹",-10.491442020078022],["å½ĵåľ°",-10.49177566084884],["é¤Ĭ",-10.491964087347045],["åĪĳ",-10.492358604338383],["æŃ¤åľ°",-10.492486279613956],["nnual",-10.49272514429639],["ĠWeb",-10.493062902638028],["bone",-10.49306987865674],["omponent",-10.493341594026347],["ĠBos",-10.49342720651898],["ota",-10.493551133868872],["ĠÃ",-10.493954995806654],["æ¼Ķåĵ¡",-10.494165998510653],["åħ¬éĩĮåĴĮ",-10.494325799022704],["Ġball",-10.494394220038338],["è¾¦",-10.494437337038672],["é«ĺéĽĦ",-10.49458303089851],["ĠBre",-10.49511200128898],["èĮĥåĽ´",-10.495145393949777],["uch",-10.495504670761772],["çĳŁ",-10.495571577683542],["åħ¨éĿ¢",-10.495609751912912],["ç¥¥",-10.49563978967215],["è¦ıå®ļ",-10.49581521008357],["ç±»åĪ«",-10.495819104881138],["urnament",-10.495837533021248],["ub",-10.496322427909677],["å»ºéĢł",-10.496701186897187],["Governor",-10.496732921817326],["æĬ¤",-10.497773505591562],["ä¹ĭä¸Ń",-10.498259588976476],["ĠJew",-10.498405152197558],["build",-10.498649701548189],["æĹ¥è»į",-10.498775587604849],["ER",-10.49921386182154],["Ġbatt",-10.499739262449854],["æ©Łåł´",-10.50002247934582],["éĽĨä¸Ń",-10.50011488129562],["åĩĨ",-10.500163254036874],["ä¿Ħç½Ĺæĸ¯",-10.50038357736104],["è°¢",-10.500426681749518],["çĶ¢åĵģ",-10.500466817227858],["è»įéļĬ",-10.500835696768403],["åĪĨä¸º",-10.501323927395898],["åĬ©",-10.501409905665431],["lying",-10.501678857500815],["å¹¾",-10.501819148817551],["åİŁåĽł",-10.501838964954562],["èĢĮè¢«",-10.501902812141614],["vi",-10.502187286102432],["rrest",-10.502440935096224],["åľ°ä½į",-10.503128456607236],["éĻįä½İ",-10.503363481141724],["å½©",-10.503440024037436],["ff",-10.503913530482135],["ÃŃ",-10.50391836030007],["west",-10.50481123394737],["Ġfan",-10.504904443566378],["åĲĦç§į",-10.505432618406513],["MP",-10.50547808816704],["çĽ¸åħ³",-10.50561329061788],["å°ĳå¹´",-10.50591679864586],["nature",-10.506008142279269],["ĠRob",-10.506089983194537],["çļĩå®¶",-10.506253932545938],["çļĦå°ı",-10.506755539312866],["HL",-10.506964219111502],["St",-10.506975325189318],["ĠInc",-10.507163937870615],["je",-10.507296228895584],["ĠSong",-10.507397502534769],["ç´Ģå¿µ",-10.508499912070928],["æ²³æµģåŁŁ",-10.508601480713263],["cient",-10.508905170665072],["æĢ§èĥ½",-10.50944071972091],["ç´«",-10.509620162401855],["æŁ¬åŁĶå¯¨",-10.50969052261461],["ĠAb",-10.510351794744471],["çĻ¼å°Ħ",-10.51053311659156],["EP",-10.510625113703757],["Ġmanage",-10.510645924295144],["æľ¬ä½ľ",-10.510836958445967],["work",-10.5110789306717],["èĢĮæĺ¯",-10.511099946051704],["Ġmulti",-10.511108082683558],["ĠLiber",-10.511938049835376],["Ro",-10.51194788338607],["tail",-10.511971260834104],["ator",-10.512654790552157],["ä¸įåı¯",-10.512871264705916],["çİ©",-10.512914526991334],["Ġorigin",-10.513062575653535],["åħį",-10.51314471637266],["çĭ¬",-10.514157522220046],["çĶ¨æĸ¼",-10.514300793971008],["Ġhospital",-10.51438535839215],["oli",-10.515347757423896],["ily",-10.515408570776696],["çĪ²",-10.515527836165772],["ĠHot",-10.515809919165635],["CH",-10.515879943200035],["unique",-10.51656065588032],["fielder",-10.516912692581167],["Kent",-10.517053694336196],["å§ĵ",-10.517152534743447],["hang",-10.517216285895312],["van",-10.517525901832624],["è¯»",-10.518433384324112],["rus",-10.518463837433115],["è°ĥæŁ¥",-10.518825818486498],["èıĮ",-10.518929360921838],["ç¬ĳ",-10.519011498976548],["äºĤ",-10.519104379537344],["é«ĺéĢŁåħ¬è·¯",-10.519110070857442],["è®¢åįķ",-10.519136267215584],["åĮ»éĻ¢",-10.519227269148743],["ving",-10.51942928437652],["critical",-10.519476024916276],["é»ĳèī²",-10.519525791220437],["ĠShow",-10.519706070151353],["ting",-10.520054782631869],["ski",-10.520113708321828],["ä¸»ä¹ī",-10.520134710828469],["çĶ¢çĶŁ",-10.520420260423762],["æķĪæŀľ",-10.520579735465027],["enko",-10.520718443709562],["æĪĲç«ĭæĸ¼",-10.520741583195766],["700",-10.52093239970019],["ĠGaz",-10.520984781611354],["Ġpick",-10.521037425455589],["åŃĻ",-10.521156822120576],["Ġnation",-10.521941297671331],["æķµ",-10.522108613163162],["error",-10.522151761837057],["talk",-10.522641160603085],["åľ¨æĹ¥æľ¬",-10.522761626079404],["å·¥æ¥Ń",-10.523250986964584],["ä¸įæľĥ",-10.523261244819247],["éģĬ",-10.523488466574044],["çģµ",-10.523533947184704],["åįģå¹´",-10.523656911513338],["åĬį",-10.523718272880728],["èı²å¾ĭè³ĵ",-10.523841676353994],["çªģçĦ¶",-10.523872112868183],["extend",-10.523935481245411],["è¿ħéĢŁ",-10.523945828039396],["ins",-10.523977940440297],["æµ·åŁŁ",-10.524029270698788],["ä¸ĭåįĪ",-10.524078861374113],["Ġobserv",-10.524357629389772],["Ġretai",-10.524689751285056],["otel",-10.524765397192867],["185",-10.525263377028605],["SS",-10.52573536152074],["lic",-10.52617000176615],["å®ĥçļĦ",-10.526325979176251],["tern",-10.52659347045035],["ib",-10.526711482398612],["ify",-10.526816973927655],["atter",-10.527098210077394],["åı¯èĥ½æĺ¯",-10.527120670121397],["emy",-10.527307192729673],["çĤºä¸»",-10.527451333525702],["çĲ³",-10.528561956863468],["hand",-10.528664645897546],["åı°æ¹¾",-10.5287343400855],["åŃ¸ç¿Ĵ",-10.528742764031785],["èĳĽæĭīæ¼¢åľ°",-10.528940488162746],["ump",-10.52987206473716],["æµ·å¤ĸ",-10.530414676015004],["èŃ°æľĥ",-10.53137399697625],["ĠPala",-10.531834767343591],["è´§",-10.531958881958213],["du",-10.53205984877152],["ä¾¯",-10.53210575990483],["ĠLand",-10.532356739138471],["ize",-10.532586886385904],["é¡º",-10.533092132849216],["ĠDes",-10.533097265294876],["ä¸ĵè¾ĳ",-10.533151712496949],["ĠLive",-10.533368300035256],["éģĹåĿĢ",-10.53339989319574],["æī§è¡Į",-10.53345991991295],["ä¸»ä»»",-10.53421811956394],["æľĭåıĭ",-10.534257187591852],["éĲµè·¯",-10.535077608770033],["SA",-10.535127622515628],["ĠOpen",-10.535470651244026],["ä¸Ģåº¦",-10.536161822586491],["ç¿»",-10.536910140871496],["Ã¡n",-10.537333143749125],["ä»¥åįĹ",-10.537566505662747],["Ġfedera",-10.537609913430984],["Ġseed",-10.537669686666804],["ä»ĭ",-10.537785193454368],["é¡ŀä¼¼",-10.537823963172931],["è³ĩæĸĻ",-10.537843979472672],["åį¿",-10.538144431696676],["æµ®",-10.53820508440932],["æ³½",-10.538215429674723],["raffic",-10.538265540199989],["Ġlyric",-10.53832516888912],["æĶ¿æ²»äººçī©",-10.538409126459069],["iller",-10.53841280318889],["åľ°éĿ¢",-10.538513207677246],["ĠKa",-10.538576046667805],["èŃī",-10.53888389156952],["ĠWood",-10.539006140845682],["Ġexport",-10.539143989539138],["ealth",-10.539160921331735],["ĠMi",-10.539206000387743],["historical",-10.53943617940178],["pain",-10.54012416472576],["ĠTrans",-10.540640423402834],["å°ĩè»į",-10.540873383600324],["ä¸īä¸ª",-10.541037128687952],["We",-10.541364283046144],["éł»éģĵ",-10.541394630881992],["mont",-10.541560306490638],["ä¹ĭéĸĵçļĦ",-10.541799932176124],["evel",-10.542482522814929],["down",-10.542544996164157],["åĩ¡",-10.542869394844091],["divide",-10.5429119873101],["åľĨ",-10.542985346656794],["burg",-10.54301815136102],["Parliament",-10.543026947768563],["contact",-10.543044444027952],["ä¼ı",-10.543186327108828],["è§Ģçľ¾",-10.543217633289732],["Ġresign",-10.54333654195466],["éĩįå»º",-10.543606495322054],["æ´¾éģ£",-10.544004879725255],["ĠMass",-10.54400979820024],["void",-10.54415813793],["ĠLuc",-10.544380958051711],["List",-10.545156927187266],["æ¯ĶèµĽ",-10.54561757513562],["è¡ĮåĬ¨",-10.54589650997152],["ĠSon",-10.546022481290144],["åħ§çļĦ",-10.546134047791076],["Hungar",-10.546324851575118],["äºĪ",-10.546631496409654],["åħŃå¹´",-10.5467229431345],["çĬ¶",-10.547560828596248],["è·Ŀ",-10.547628335583807],["æŀª",-10.547692177782857],["çĶĺ",-10.547834477087903],["çĽĺ",-10.547892363656924],["éĺ»æŃ¢",-10.54789837880652],["tz",-10.54790081090981],["ç¶²ç«Ļ",-10.547915149954054],["éĨ«éĻ¢",-10.54798125483445],["Ġsal",-10.548035243349032],["å¤©ä¸»æķĻ",-10.548097477560876],["ĠPat",-10.548327945276718],["lot",-10.54857394252385],["Ġab",-10.548930894505094],["çĲĥéĺŁ",-10.54907608999494],["åħ¶å®ĥ",-10.549176330033188],["ST",-10.549224364121528],["åıĪç§°",-10.549500641625524],["ĠDel",-10.549529579606304],["Medal",-10.549952777790434],["grant",-10.55022373329632],["Ġscreen",-10.550243727646816],["expir",-10.551077801925054],["æ°´å¹³",-10.551139965504078],["ĠFam",-10.551264282467685],["Ġgas",-10.55127578696834],["èĩªåĭķ",-10.55143707305406],["uses",-10.5514743682411],["å°İ",-10.551573268805477],["letic",-10.551620596828696],["åłĨ",-10.551680219647118],["EC",-10.551731744404348],["ĠPe",-10.551741642860012],["ĠRoo",-10.551948183005509],["åºı",-10.5521274028819],["åį¢",-10.552523379848076],["æĸĹ",-10.55260094347376],["ĠSwe",-10.552686683147412],["é½Ĭ",-10.552759296523018],["referr",-10.552958734714483],["æıĲåįĩ",-10.552996538648172],["itizen",-10.55302263159735],["ĠFrancisc",-10.553492726798233],["çļĦä¸ĢåĢĭ",-10.553502517837734],["äº®",-10.553615634777303],["å»ºèŃ°",-10.55367440283793],["93",-10.553752263251845],["æĭīèĲ¨",-10.55449973917197],["å¦ĤæŃ¤",-10.554936794300456],["åĦĦ",-10.554973910690936],["çĳª",-10.555766917866162],["No",-10.555942811371956],["è±¡",-10.55604451238474],["ball",-10.556045942939363],["ç´ĢéĮĦ",-10.55638147362891],["Ġcompetit",-10.556564584707685],["ĠTour",-10.55674531001823],["ition",-10.557081699996928],["Ġinstall",-10.55714479949657],["åħĦ",-10.557199373975696],["ä¼ģæ¥Ń",-10.5573003017538],["sky",-10.55737187907138],["å¿ħé¡»",-10.557666193461866],["à¸",-10.557670157100258],["ç¨ĭåº¦",-10.557681856987156],["ç²¾éĿĪ",-10.557685368823144],["ç´Ħç¿°",-10.557691614156166],["è¨Ńæĸ½",-10.557694132551322],["åĦ¿ç«¥",-10.557695393909276],["éģĩ",-10.557742183873504],["negative",-10.557921021586647],["ĠDen",-10.557931701582929],["èĹ¥",-10.557978953416496],["Ġbeat",-10.558346192869042],["ä½¿çĶ¨çļĦ",-10.558449367981863],["experience",-10.55849346890824],["unk",-10.559247944022658],["rid",-10.559268705878964],["Ġelectric",-10.559796492234806],["Ġexhibit",-10.559929750482295],["è®°è½½",-10.560253867382158],["ç¡¬",-10.560343324888578],["arren",-10.56055617087668],["gun",-10.56099907931005],["ĠSA",-10.561176703129426],["Ġcru",-10.561450166869587],["Ġattract",-10.561611989010416],["scale",-10.56198861777975],["çĽĸ",-10.562405023977878],["æ··",-10.5624204193329],["ä¹Ļ",-10.56250017455255],["ĠVictor",-10.56317017548394],["ä¸Ńåľĭå¤§éĻ¸",-10.563290246617006],["amount",-10.563703620156634],["ĠSummer",-10.56404210908833],["å°¤",-10.564151919193057],["æ¥ļ",-10.564168755317777],["Ġalleg",-10.564456522997402],["åħĪåĲİ",-10.564707704283624],["ĠOver",-10.56470782189854],["Operation",-10.564737261595324],["çī¹æ®Ĭ",-10.564905108247496],["Ġthr",-10.564965290360824],["ä¸Ńéĥ¨",-10.565037085836815],["æ°ĳåľĭ",-10.56644945695142],["Ã³n",-10.56655526300069],["æ²ī",-10.56682204660594],["Ġsucce",-10.56695226547243],["æ¸¡",-10.567071707828612],["abi",-10.567260677622093],["è´¡",-10.567293423383848],["åĩĨå¤ĩ",-10.567563275870572],["èģĶçĽŁ",-10.567564189316874],["Ġquick",-10.56757851847086],["ĠEg",-10.567710656473668],["ç´Ģ",-10.567743799574847],["vez",-10.567963239443785],["ano",-10.568025497880026],["åĽĽå·Ŀ",-10.568030876142243],["approv",-10.568063274766878],["ĠBarr",-10.568314168916745],["æłĩ",-10.56842900918594],["ä¸ŃåŃ¸",-10.569113482420333],["ĠCross",-10.569527263405943],["Ġcut",-10.569682479216803],["ani",-10.56978778451683],["Ġdrama",-10.56986306045265],["tree",-10.570178764117472],["å¤§éĻ¸",-10.570242467115415],["åħ",-10.570394144182323],["jo",-10.570669622752462],["Ġsignal",-10.570742395990838],["ĠCarol",-10.57079999272062],["Ġport",-10.57097169529116],["ä¾į",-10.570981523997354],["åĩºæ¼Ķ",-10.572141760648528],["ĠRegion",-10.572198258555634],["Ġfoot",-10.572217238045267],["Ġtranslat",-10.572302903562104],["ä¹ĭåŃĲ",-10.572369192797616],["æķ¦",-10.572423881714377],["æĽ¹",-10.572602242834764],["æĽ¾ç»ı",-10.573049255273917],["çĻ½èī²",-10.573210489812736],["çĪ¶äº²",-10.57356898688232],["Ġprogramme",-10.574314258658884],["CAR",-10.574521093675962],["éĥ¨éĹ¨",-10.574730523663431],["mouth",-10.57475455622555],["II",-10.574868113161658],["è¯ķ",-10.574923904120254],["Ġder",-10.574984284043076],["Ġident",-10.575019957695693],["Ġdiv",-10.575143690865648],["çļĦä¸Ģ",-10.575851723608816],["Report",-10.575913097026216],["å¸ĿåĽ½",-10.576297141225664],["å§ĭ",-10.576365437726157],["åģ¥",-10.576691989122626],["ay",-10.576759039324848],["ä¸ĺ",-10.576891440331394],["Ġ36",-10.576943658739244],["èŀº",-10.577198876833936],["æ±Ĺ",-10.57728125697758],["ä¿Ĭ",-10.577502734864964],["eapon",-10.577723667716484],["ç·¨æĽ²",-10.577727603851102],["é£Ľè¡Į",-10.577757671407642],["Ġlength",-10.577801290219266],["01",-10.578492193270655],["æ¶īåıĬ",-10.578546364494976],["å¹ķ",-10.578889820659835],["zi",-10.578980012712446],["åĶ¯ä¸Ģ",-10.579828595097112],["iving",-10.579937646560252],["åŃ«",-10.580119929357627],["å¹´åºķ",-10.580196642535642],["ĠIs",-10.580453576349818],["ç©ºè»į",-10.58047952344194],["ef",-10.580904608596049],["ĠUkrain",-10.581168654242672],["figure",-10.581198996061229],["ç¬¬äºĮæ¬¡",-10.581335958895608],["02",-10.581780062023007],["åĳ³",-10.58192389089757],["Jean",-10.581950282128332],["æ¬§",-10.58197076802744],["Ġflo",-10.582061219120284],["èªŀè¨Ģ",-10.582198077242182],["éı¡",-10.582383622734213],["ç¾½",-10.582605442129974],["éĵ¶",-10.582608642636549],["cu",-10.582650686539123],["æī¹è©ķ",-10.582661581801135],["agreement",-10.582676304147489],["å»£æĿ±",-10.582720227633583],["ermanent",-10.582912974439092],["words",-10.583473724056269],["AR",-10.58357387776958],["ä¾§",-10.58366644205637],["å¦»åŃĲ",-10.583734671239156],["çļĦè§Ĵèī²",-10.5837668934938],["placement",-10.583797367104305],["æķĪ",-10.583992640964436],["war",-10.584187569922031],["å®£ä½Ī",-10.584215141427368],["ella",-10.584647238066944],["ue",-10.584704347514643],["ĠRay",-10.584958613726783],["ps",-10.58516520651051],["Ġmeaning",-10.585280817490451],["åĬŀ",-10.585723500222825],["ä¸īåĢĭ",-10.585791341668829],["Ġtend",-10.585958929989433],["å´ĩ",-10.5862772759111],["Ġmark",-10.586625294213215],["len",-10.58686966711274],["çİ°ä»£",-10.587043084312036],["val",-10.58704903213962],["æĹº",-10.58740489054231],["duct",-10.58758130830722],["120",-10.587612583146672],["Ġbomb",-10.587712531305405],["ä¸Ńèı¯",-10.587816925691456],["yard",-10.587921881340742],["ual",-10.588071844255964],["ĠAndre",-10.588741190748753],["åľĭæ°ĳé»¨",-10.58876330595422],["ä¹Łè¢«",-10.589556415830408],["çĦ¶åĲİ",-10.5895790449916],["ume",-10.589874583141045],["åħħ",-10.59033128487294],["awa",-10.590367722745324],["åĪĨçĤº",-10.590512184524409],["åĭķçī©",-10.59060104329604],["å®ŀçİ°",-10.590875126945177],["å¢ĵ",-10.59158622467706],["orts",-10.59192217105432],["her",-10.592121951483282],["we",-10.592293852412942],["çĶŁäº§",-10.59237819243202],["è³£",-10.592423184551246],["èĪīäºº",-10.59267018960514],["è´¦æĪ·",-10.592681535792522],["éĤĢè«ĭ",-10.59268304125992],["å®£åĤ³",-10.59276125510533],["connection",-10.593113937423976],["ä¼łç»Ł",-10.593133352470495],["ç©ºéĸĵ",-10.593926740179104],["istic",-10.59415116652808],["deriv",-10.59431965814204],["ift",-10.594403158266491],["sas",-10.595021606110704],["è¿ĺæĺ¯",-10.595174573712448],["èģļ",-10.595216905782005],["merg",-10.59553351708662],["Ġleg",-10.595561380284437],["ç«¥",-10.59567583562001],["äºĮåįģ",-10.595683395125407],["æľīæīĢ",-10.596233494125704],["mi",-10.596738624924562],["ram",-10.596769037097667],["æ³¨",-10.597398365283034],["è£ľ",-10.597626844792083],["åĿ¡",-10.597638756059943],["ject",-10.597666856801762],["ĠTa",-10.597744385070431],["ĠCentre",-10.597975294747158],["Ġ183",-10.598039546022818],["Ġdep",-10.59806992566826],["é¡¹",-10.598140801287617],["Ġcollaborat",-10.59873282250189],["Ġinstrument",-10.59910065883481],["ĠGil",-10.59939319652722],["ool",-10.599470894751496],["Ġadapt",-10.59997244247042],["pressure",-10.600613075803814],["Ġdefend",-10.600660585595634],["ld",-10.60095058384921],["ĠSecretar",-10.601191919086377],["åħĥç´ł",-10.601677656620131],["Star",-10.601995829611903],["å®ľ",-10.602172361241085],["Ġtru",-10.602192802898784],["ages",-10.602247858961142],["ä¸Ģå®¶",-10.602335546075206],["æłĩåĩĨ",-10.602384825206142],["åŃŁ",-10.602490280776667],["aka",-10.602597216731652],["ĠMur",-10.60261154387218],["èīĺ",-10.60289842198663],["ĠGree",-10.60328492980148],["æ··åĲĪ",-10.603358298877382],["verb",-10.603677120147063],["æŃ»åĪĳ",-10.604123740430351],["ĠJackson",-10.604273327561096],["Ġheart",-10.604502061086883],["billion",-10.60474207887355],["away",-10.604847335552773],["Austria",-10.605008716474956],["å¦ĥ",-10.605294845060785],["çľ¾",-10.605392945698703],["ä¸»è§Ĵ",-10.605588550986855],["ĠAd",-10.60601089997482],["çĲĥéļĬ",-10.60610673749434],["ãĢĮãĢį",-10.606508067342704],["His",-10.606810656390303],["æĿ¥åĪ°",-10.606838101515724],["æĸ¯åĿ¦",-10.606854105800224],["engineer",-10.60691674512914],["è¾²",-10.607003389626822],["Ne",-10.607484453884286],["åĽ½çİĭ",-10.60762103452472],["å®¶ä¸Ń",-10.60770632578551],["çļĦåħ¶ä¸Ńä¸Ģ",-10.607859766327568],["çĭĹ",-10.608005030322357],["æ¯Ľæ³½ä¸ľ",-10.608025858904172],["èģ·æ¥Ń",-10.608151070081838],["åħ¨æ¬§å¿«è½¦",-10.608216406912042],["CO",-10.608220018423864],["æľºåľº",-10.608274153263146],["æ±½è»Ĭ",-10.608295520870202],["Ġsearch",-10.608478378639935],["åĲĦç¨®",-10.608514116151522],["Ġvolu",-10.60881284386336],["Ġphilosoph",-10.608964014394116],["ç¶²è·¯",-10.609293483212706],["committee",-10.609303864186716],["art",-10.60950144230711],["çĽ®æ¨Ļ",-10.609602439325112],["ĠLine",-10.609743198009674],["åı¸æ³ķ",-10.61036816458616],["mp",-10.61042996884819],["ä¸¦ä¸į",-10.610743575405834],["äº¦æĺ¯",-10.61080402790266],["è®¾ç«ĭ",-10.61082716854905],["ç¥ĸçĪ¶",-10.611027421369725],["ĠOk",-10.611342209896955],["ĠKen",-10.611642753494916],["æł·",-10.61170511222982],["Åį",-10.61185427286702],["Ġphotograph",-10.612016285689414],["åĮºéĹ´",-10.612511221442285],["éĴ¦",-10.61274012660824],["æıĽ",-10.61275588321513],["äº¿",-10.61309310233479],["kilomet",-10.613160154742124],["æıļ",-10.613244836918572],["éĽ»èħ¦",-10.613279873649091],["ãĢľ",-10.613327692129577],["å»ºæĪĲ",-10.613371466433868],["å·´è¥¿",-10.613374266476075],["å¸Ĥåľº",-10.613493595721003],["ç¶ŃæĮģ",-10.613571626150051],["iki",-10.613704745561623],["æŃ£å¸¸",-10.614273217984683],["ep",-10.61440744267021],["å·¥äºº",-10.614465140681862],["Ġshar",-10.614504788477154],["direction",-10.614661158104884],["å®īæİĴ",-10.61484530888512],["æŃ¤æ¬¡",-10.614980651438614],["tal",-10.615062940476164],["Ġmultiple",-10.615136693487171],["æĺĤ",-10.61536101698314],["æ´¥",-10.615665783233808],["é«ĺéĢŁ",-10.615786993541416],["ĠCommand",-10.615981462948527],["ĠMaster",-10.616119114306793],["ä»İèĢĮ",-10.61631027899224],["çīµå¼ķ",-10.61655441390895],["ĠMich",-10.616724865706331],["Ġeducat",-10.616766448514086],["åģ´",-10.617015712728964],["ĠRepresentati",-10.61729607435868],["electronic",-10.617373278496176],["One",-10.618402288786813],["ç¦»å¼Ģ",-10.6184746055573],["Ma",-10.618546163438156],["è´ıå¾Ĺ",-10.618552662354944],["ä½įæĸ¼æĿ±éĥ¨",-10.618724248933097],["çĩŁéģĭ",-10.61888992821605],["cn",-10.619181757116635],["éŁĵ",-10.619356476321991],["rise",-10.619402053017245],["å·¨",-10.61942410721064],["ç©ºä¸Ńçħ§çīĩè¢«",-10.619488090375658],["ligion",-10.61957874851066],["æŃ¤æĻĤ",-10.619619249724057],["åĪº",-10.620123940970238],["Fro",-10.62016491910705],["place",-10.620437173031068],["æ»ĳ",-10.620604159426232],["igan",-10.621180883790856],["umber",-10.621560340728047],["update",-10.621735957245107],["åħ³äºİ",-10.62180239608205],["ridge",-10.622104942212069],["ace",-10.622232601936592],["Ġprovinc",-10.62234888132146],["weight",-10.62263889038345],["åĭ¢",-10.622705984778598],["å»£æĴŃ",-10.623244820610932],["ĠChi",-10.623266173651814],["PI",-10.623468246877003],["é¬¼",-10.623559143006124],["èŁ²",-10.623670146001595],["éĢĲæ¸Ĳ",-10.623678758429566],["rit",-10.623881908642772],["è½¦ä½ĵ",-10.624083206902696],["og",-10.624351706250703],["è¢«ç§°ä¸º",-10.624606277141217],["å¦Ĥä»Ĭ",-10.624630342160746],["Ġprior",-10.624709847879735],["éļ¾",-10.624739095569556],["å¤§éģĵ",-10.625077091739996],["rize",-10.625287991862226],["æ²Ī",-10.625824844501636],["çı¾æĻĤ",-10.626140405611036],["els",-10.626680877667573],["Ġdeb",-10.626743577711686],["eacher",-10.626996430756536],["ives",-10.627754752764297],["ĠPu",-10.62786607596938],["ĠMain",-10.628100621514474],["ç»ĵæĿŁ",-10.62824706348901],["ĠRegi",-10.628316652853195],["åķŁ",-10.62846417176592],["æŁ¯",-10.628648542942209],["Columbia",-10.628826566261615],["åĨ°åİŁå³¶å³°",-10.628938086150924],["Hospital",-10.628938105268269],["èĳĽ",-10.628969603385135],["ony",-10.628991510768994],["olish",-10.629328557185772],["ĠAlbert",-10.629374542475215],["rival",-10.629711538521043],["ä¸¤äºº",-10.62971722127708],["ä¸Ģæ¢Ŀ",-10.629747801954764],["åĪ«",-10.629806390581058],["ypt",-10.63035675674705],["è§Ĩ",-10.630470589011718],["çĽ¸æ¯Ķ",-10.630728013243452],["åįĹæ¥µæ´²çļĦ",-10.630866348806322],["Ex",-10.630887469661197],["RV",-10.631230321200604],["ans",-10.63133337265138],["æĸĩåŃ¦",-10.631730523066476],["vision",-10.63227767363242],["ĠSi",-10.632639207872328],["åĿĢ",-10.633377909925244],["online",-10.633580206778513],["ĠAth",-10.633845925634676],["è¿ģ",-10.633940189981049],["å¤«äºº",-10.634178925048191],["å¸®åĬ©",-10.63422789696346],["cientific",-10.634235661761489],["cester",-10.634266474715606],["åĪĨéĴŁ",-10.634357954210016],["ju",-10.634422511391026],["æ®ĸæ°ĳåľ°",-10.634515578207775],["Ġemerg",-10.634682803587744],["ä»¥ä¾Ĩ",-10.63523373086327],["éģ¸æīĭ",-10.635406841292522],["ura",-10.635864755761578],["Ġgre",-10.635899347486935],["molecul",-10.6359904633749],["å¥ªå¾Ĺ",-10.63635866420011],["å¤±åİ»",-10.636649005099429],["æ¾³å¤§åĪ©äºŀ",-10.63685247673582],["Å",-10.63689186973976],["æĹĹä¸ĭ",-10.636958847919528],["æļ´",-10.636961211386122],["æĺ¯ä¸Ģç¨®",-10.637120919146328],["åºŃ",-10.63712285869416],["ĠLegi",-10.637646978599626],["ĠTr",-10.63769763272898],["Ġmetal",-10.637711131121458],["åĵ²",-10.63844610237295],["ä¸½",-10.639124821575423],["çĩĪ",-10.639469100684051],["åĪĽä½ľ",-10.639508289298588],["ĠBob",-10.639521794008798],["æģ¢å¾©",-10.639548270148014],["NT",-10.639552986851994],["è³ĩ",-10.639568833932838],["çİ¯å¢ĥ",-10.639635839734757],["åĵĪæ¡ĳ",-10.639727546886904],["åĽłç´ł",-10.640178919327386],["rred",-10.640292570381694],["åļ´éĩį",-10.640357032863536],["æĽ´å¤ļ",-10.64037267554469],["åĪĨå¸ĥæĸ¼åį",-10.640705428367689],["é£İæļ´",-10.641131886218716],["ä¸Ģå¸¶",-10.641266308823749],["deep",-10.64139723659909],["Ġescap",-10.641972604329728],["åĥ§äºº",-10.642667159249587],["ovement",-10.642793265567995],["Mar",-10.642860774617242],["ä¸įè¶³",-10.643575264739038],["works",-10.64412919593607],["æ¨ª",-10.644241866795346],["çŃĨ",-10.644464747222752],["æİĴåĲį",-10.644531641368207],["çī§",-10.644659703519617],["crash",-10.644679727995216],["å¨Ľæ¨Ĥ",-10.644872841882574],["ä¸ĵä¸ļ",-10.644977387945795],["session",-10.645076296671732],["äº§çĶŁ",-10.645424166153855],["æķ´ä¸ª",-10.645598856603138],["urban",-10.645764671523471],["çĽ´æĴŃ",-10.645772500654616],["Ġconcert",-10.646086273232816],["çķ¢æ¥Ń",-10.64658450178007],["ĠLei",-10.646742770281891],["ĠDirector",-10.64720787721647],["Ġassign",-10.647355553997157],["ĠDavi",-10.647639702584794],["lly",-10.647802933987908],["çĻ¼åĩº",-10.648225602976426],["ĠTh",-10.648429931145944],["èĻŁåħ¬è·¯",-10.64893627045882],["æĺ¯ä¸Ģä½į",-10.649146047440656],["ĠBrad",-10.649582975448505],["èĢĮæĪĲ",-10.649588319519909],["Ġresponsib",-10.649677758816658],["èµŀ",-10.649829057315156],["è¨Ńæľī",-10.649979997229613],["éĮ¢",-10.649991508173477],["å¤ĩ",-10.650037713974347],["æ¥µæ´²çļĦå±±å³°",-10.650155117681903],["èĹıä¼łä½ĽæķĻ",-10.650272183490053],["Elizabeth",-10.650272283011386],["èĥ½å¤Ł",-10.650272735061826],["åĩ¯",-10.650283354772377],["çµ¦äºĪ",-10.65034547035522],["flight",-10.650473274299724],["ĠOf",-10.65058481051081],["Ġvirtu",-10.650895306198862],["æľ¬èº«",-10.651090312921829],["çµ±ä¸Ģ",-10.65130651327182],["å¤§å¤ļ",-10.65148811528649],["injur",-10.652018152469594],["ä»ĺ",-10.652360732630456],["è¯",-10.652412290813624],["arry",-10.652488670349278],["ats",-10.652613710700887],["Ġcriticis",-10.653261521139544],["ĠEmp",-10.653817908923084],["vot",-10.654297530363586],["idel",-10.654400786425],["è®Ģ",-10.654835615127688],["èµĦ",-10.65507882170986],["ä¿",-10.655175411450474],["ç©ºä¸Ń",-10.655432660211265],["æĬ¥éģĵ",-10.655510081738758],["æ©«",-10.655622087069194],["åĩºçĶŁæĸ¼",-10.65567411692876],["åªĴä½ĵ",-10.655676781265312],["ë",-10.65567758186284],["å¹«åĬ©",-10.655683489357395],["çĭĢæħĭ",-10.655695554283753],["æĦıå¤ĸ",-10.655752076706662],["Ġtechn",-10.655825256694786],["çĪĨçĤ¸",-10.656338552185208],["sure",-10.656392425088606],["edicine",-10.656552616948758],["ĠJournal",-10.65704862320733],["ĠCirc",-10.657280053458482],["å¯¦æĸ½",-10.657387566748527],["mse",-10.6574576510113],["icket",-10.657515069480514],["Ġreflect",-10.657925060015968],["ru",-10.65794735970237],["ound",-10.65871942031849],["è±ª",-10.658945633574554],["zer",-10.659004649285512],["çµĦåĲĪ",-10.6590881183116],["æĶ¶éĮĦ",-10.659258253827709],["åĨľ",-10.660600755618596],["å±±æĺ¯åįĹ",-10.660873096699447],["ĠFle",-10.660959136216883],["ä¹¾éļĨ",-10.661034715514823],["çĹĩ",-10.661070135636477],["æ¬²",-10.661112364574691],["Ġkind",-10.661188260740314],["ĠSer",-10.663478205744864],["hio",-10.663852327688677],["æĺ¯ä¸Ģåº§",-10.66416300525796],["ç¬¬ä¸ĥ",-10.664344963823549],["ali",-10.664831505244862],["è®¾ç½®",-10.665625132564369],["Ġsc",-10.665821437525464],["åĦĢ",-10.666168275253924],["èĪĪå»º",-10.666342418834066],["å¢¨",-10.666543580759752],["çł´å£ŀ",-10.666597594410565],["çĽ§",-10.666603156717375],["è·Ŀç¦»",-10.666608543002074],["æī£",-10.666628109420426],["é£Łåĵģ",-10.66694982348166],["è½»",-10.667316463888069],["portion",-10.667318911465326],["ĠRevolution",-10.667942594910391],["Ġprotest",-10.668120989797504],["ä¼Ĺ",-10.668417003376751],["Ġimprov",-10.668990064035263],["Ġfrequent",-10.669369918835944],["Ġorganiz",-10.669943772161826],["åĤ³çµ±",-10.670209202083315],["é¤ĺ",-10.67021914072835],["çĻ»ä¸Ĭ",-10.670767586348532],["ĠBelg",-10.670887733096658],["åķĨæ¥Ń",-10.670948425143246],["AN",-10.671413756638335],["burn",-10.67156138155551],["åŃ¦åĲį",-10.67157133139956],["éģ¿åħį",-10.671844218669571],["ĠTre",-10.671901268491514],["åºĻ",-10.671949675867982],["çµ²",-10.672019565236248],["ä¹±",-10.672040501685014],["éĦŃ",-10.672111012754485],["final",-10.672119868784224],["è£ħç½®",-10.672166872300808],["housand",-10.672270425748817],["åĳ½åĲįçĤº",-10.672324713745404],["å¦Ĥä½ķ",-10.672437177598804],["æĺİæ²»",-10.672836808916497],["ĠFred",-10.672954948908284],["Ġaffect",-10.673269880216536],["éĩĿå°į",-10.674541636198269],["å¹¸",-10.674997649398554],["èı¯äºº",-10.67528803632747],["ç¤º",-10.675562841644776],["éº¦",-10.675868138544718],["æĺ¯ä¸ĢåĲį",-10.676692734403218],["æĢĿæĥ³",-10.676810619974862],["can",-10.677007707669592],["ĠCarl",-10.677050580554974],["çĥĪ",-10.677233318813569],["ĠCivil",-10.67735188703913],["è¿İ",-10.67749810621138],["çĲīçĲĥ",-10.677608012120553],["ĠPost",-10.67785399258555],["ĠTi",-10.677926966990524],["åį°å°¼",-10.67794143239554],["ĠTemple",-10.678021818239102],["Ġgue",-10.6782068840968],["shoot",-10.678208975111756],["çļĦåľ°æĸ¹",-10.678317910941535],["æ²¡",-10.678432577355878],["rose",-10.678861711206448],["è¨ĺèĢħ",-10.67896844356849],["creation",-10.679070936060372],["ä¸ĢåĪĩ",-10.680971270071716],["cade",-10.681055395257086],["think",-10.681191864144123],["çĪĨ",-10.681264829286516],["å¤§å°ı",-10.681278078808576],["èŃ¦æĸ¹",-10.68130742855904],["ĠKer",-10.681321782991148],["ç¤¾åįĢ",-10.681585169416948],["å°ĩæľĥ",-10.681745040438155],["ĠItal",-10.681760287352244],["core",-10.681761206558356],["é¢Ħ",-10.68263063873323],["ãģ",-10.68268447074978],["AD",-10.68274254438215],["è¯ģ",-10.68280566267977],["å¸Ĥæ°ĳ",-10.68281842476928],["åĲĦåľ°",-10.683080893328956],["Mexican",-10.683152232868874],["ç¼ºä¹ı",-10.683155686264229],["åĢ«æķ¦",-10.68320464602791],["ctivist",-10.68321105667875],["åıįå¯¹",-10.683634744013167],["æī¹åĩĨ",-10.68368067278207],["ara",-10.683929323824326],["Ġju",-10.684252167934371],["ç»ıèĲ¥",-10.684570417721348],["fix",-10.684679479900089],["åĪĽå»º",-10.68468514007328],["()ãĢģ",-10.684827567788773],["éģº",-10.684837888700269],["ust",-10.684904411101014],["æŃ·",-10.685535942236392],["net",-10.68556093689969],["éľĩ",-10.685636472094998],["Ġpen",-10.685828725525417],["å£«åħµ",-10.686130911837475],["ĠTurk",-10.68641115833171],["wise",-10.6864593327155],["anna",-10.68674397893631],["ĠAtlant",-10.686933570794164],["åĴĮåħ¶ä»ĸ",-10.687282137781096],["å¹´è¢«",-10.687523041572492],["print",-10.68805781935372],["åĬ¨çī©",-10.688195690252126],["çĲ´",-10.688209335265952],["ĠYa",-10.688314287546628],["æľīäºº",-10.688372971435705],["tar",-10.68838973298331],["ĠFall",-10.688539968537942],["Google",-10.68873889563174],["çĹĽ",-10.688739533198255],["çĽ¡",-10.688754521334836],["ĠEntertainment",-10.688754936291977],["è½¯ä»¶",-10.688765068213126],["çĩķ",-10.688774523818674],["æĿĨ",-10.688779376997696],["Ġcontempora",-10.68883303624314],["èį·",-10.689031952003226],["ĠNetwork",-10.689042226272328],["åİĨ",-10.68909356136272],["æ¡Īä»¶",-10.689236139079892],["ilton",-10.689492789558008],["æĺ¯ä»¥",-10.68971250502116],["SD",-10.689851632890912],["éĥ¨èĲ½",-10.689979361753444],["ĠTop",-10.690150113510876],["ane",-10.690164385003213],["184",-10.690236328886154],["amed",-10.690314036367049],["shore",-10.69038361540972],["ĠGood",-10.69128577561355],["åįĢåŁŁ",-10.69129150926523],["ĠVal",-10.691519881942767],["åįĥç±³",-10.6916241350937],["è£Ķ",-10.691742269232709],["bile",-10.692317412685592],["æĪ²",-10.692668001450052],["ĠHead",-10.692709301349984],["ĠHal",-10.692800346691469],["éĩįåºĨ",-10.69316986867672],["ç¯Ħåľį",-10.693477321146007],["æľīä¸Ģ",-10.693528422221874],["ock",-10.694091131384631],["åħ¹",-10.69433047052592],["èª²",-10.694332036690684],["Ġpotential",-10.694357853551372],["æĬ±",-10.694361239620031],["æĭĴçµķ",-10.694364070090137],["èħ³",-10.694385573870717],["Ġmachine",-10.694568017684125],["åĸľåī§",-10.695062134265005],["iana",-10.695256034106812],["Ġinsul",-10.69560363839108],["academic",-10.695786882894724],["athan",-10.696403474912604],["åľĭçİĭ",-10.696502389968304],["Ġfac",-10.696644232278013],["900",-10.696659221815551],["ä¿ĿåŃĺ",-10.696806944638912],["elian",-10.696839116118326],["ĠBell",-10.696868865323095],["å®³",-10.69712292159628],["oo",-10.697240263364591],["Ġdel",-10.697416321576863],["çļĦåĲįåŃĹ",-10.697630558581686],["verse",-10.6980859846627],["ç®Ģ",-10.69814435066844],["ä¼¤",-10.698586805616369],["bi",-10.698668927990608],["ä½",-10.698827126579523],["Ġreceive",-10.698907808639133],["wing",-10.699063989011965],["æ´Ĺ",-10.699201101324814],["é£ŀæľº",-10.699579716881018],["éĦŃä¿Ĭèĭ±",-10.700006058449752],["Ġconcentrat",-10.700013336686084],["ä¹³",-10.700015520731665],["çĶ³è¯·",-10.700059649102691],["æ¡Ĥ",-10.700076667434804],["èŃ·åłĤ",-10.700109225482713],["ä¸»ç¾©",-10.70018032823823],["æ¨¡åŀĭ",-10.700196994710266],["æĬķè³ĩ",-10.700265989711694],["æį·",-10.700315084323869],["åį³ä½¿",-10.700593527650463],["èĩ³å°ĳ",-10.701036198690822],["ĠEnd",-10.701301245133957],["éĢĢåĩº",-10.70133481927846],["åı¥",-10.701437723091733],["éĿ¢ç©į",-10.701756136455558],["Po",-10.701914133623138],["Con",-10.70233454341304],["æľ¬äºº",-10.702806026566131],["è·ĳ",-10.702830463110512],["èĹĿ",-10.70349669968574],["éĩĳèŀį",-10.703829468195751],["af",-10.703959416670244],["çĶµåŃĲ",-10.704874684328988],["oftware",-10.7050736658613],["èĬ¬",-10.705460338543876],["yan",-10.7055500016597],["åĪ¤",-10.705592497460623],["è¨İè«ĸ",-10.705694780059414],["å¤ĸäº¤",-10.70574347013458],["ä¸Īå¤«",-10.705759050341292],["æĪªèĩ³",-10.70607014621482],["Ġrestrict",-10.706159176943553],["ĠDar",-10.70662880337078],["å°ĩåħ¶",-10.70673032842356],["æľīæķĪ",-10.706776712548738],["ĠMiss",-10.706890088008386],["lternative",-10.707729376138454],["ĠFra",-10.707807384531188],["Ġdead",-10.708708327464468],["è²»å¾·åĭĴ",-10.708955850666117],["çŁ¥åĲį",-10.70929055892673],["plot",-10.70943929241983],["éĥĳ",-10.709837173734725],["ĠLy",-10.709848764853882],["ĠJud",-10.709862256237734],["Ġseparat",-10.710108630589826],["mpson",-10.710522778202993],["Ġprogramm",-10.710561429842553],["ĠInter",-10.710626491529451],["ĠBon",-10.710859499905304],["onna",-10.711344974613246],["åħ±åĴĮåĽ½",-10.711348470087016],["Matthew",-10.71140342324657],["èµµ",-10.71142340947008],["èĭ±èªŀ",-10.7117785710592],["ä¸īäºº",-10.711936030542956],["å¹¶ä¸į",-10.71202913041902],["Suprem",-10.712616924999288],["ux",-10.712617214073704],["Adel",-10.712626103712838],["terior",-10.712687804975932],["ĠEdit",-10.713521398748378],["roll",-10.71381509309888],["itcher",-10.714097783443266],["ĠLind",-10.714172651278483],["éĿł",-10.714269357924003],["lock",-10.714342520400976],["tro",-10.714456540979173],["æ¤įçī©",-10.714681254275767],["Ġquarter",-10.714687691418348],["ven",-10.714756170306709],["VI",-10.714783012415532],["åķĨåĵģ",-10.714893539332156],["ĠHarv",-10.715020913430727],["èĩ¨",-10.715310427764337],["æĹ¶ä»£",-10.71552490927985],["æ¥ŃåĭĻ",-10.715592805485748],["åĪĹè»Ĭ",-10.715680989835365],["analysi",-10.715808752269208],["Ġcas",-10.716342685459724],["èĳ¬",-10.716363015488817],["æ²³åįĹ",-10.716378839444928],["Ġprogress",-10.716645874406764],["ä»¥åĲİ",-10.716897714804404],["call",-10.716960493205118],["ä¹¾",-10.717121241263346],["çİĦ",-10.71717171332228],["èĬ³",-10.71718847959426],["åħ¥ä¾µ",-10.71725542019168],["åĲĮçĽŁ",-10.717269460116691],["Ġface",-10.717495199246894],["ä¸¦æ²Ĵæľī",-10.717623677109884],["å·¥ä¸ļ",-10.717839835651432],["acy",-10.717933180402849],["dependence",-10.718227024483832],["translation",-10.718350889327752],["æ¯Ķè¼ĥ",-10.7184080271393],["æķ´åĢĭ",-10.719373244301828],["Ġac",-10.719613618195323],["Ġgovernor",-10.719671580841386],["è¢«è¿«",-10.719672405844262],["åĪĽ",-10.719775191180764],["night",-10.71978814488467],["istance",-10.719819852441972],["å½ķ",-10.720294656650823],["èĩªåĬ¨",-10.720631455015065],["Ġdat",-10.720795119105407],["ath",-10.720953959634986],["die",-10.7212719365409],["Ġdepart",-10.72201332675768],["SM",-10.722278739454085],["æĹ¥æľŁ",-10.72234677380154],["æĶ¶åħ¥",-10.722348437209964],["å»Ĭ",-10.72243577781184],["Ġspin",-10.72248624425388],["éĨ«",-10.72251011326608],["çī©çĲĨ",-10.722673070045268],["å°½",-10.722860058481968],["å¥§åľ°åĪ©",-10.722929863574617],["ç´¯",-10.72293018764352],["æ¸¬è©¦",-10.722948603735764],["éĿĻ",-10.722957758560998],["ç¾Ĭ",-10.72296493312393],["archive",-10.723039544149817],["è¨Ńç½®",-10.723054705331268],["çµĲæ§ĭ",-10.723349343905156],["âĢĿ)",-10.723577124830792],["ãĤ",-10.723784990555837],["åıĳè¡¨",-10.72389980771183],["Ġrecogniz",-10.723954705385662],["ĠSal",-10.724043049571687],["Mike",-10.724463155825116],["è©ķ",-10.725077587010382],["Ġhere",-10.725417714154634],["BA",-10.725480919468591],["fare",-10.725513943932077],["Honor",-10.725519451993346],["é¡¯",-10.725789213181102],["rul",-10.726383570055958],["Ġhear",-10.72705210199288],["aide",-10.72710634819578],["ĠOtt",-10.7274882987258],["ĠTest",-10.727694873524102],["åļ´",-10.727701095575297],["Ġnormal",-10.727741056751924],["å©ļ",-10.728211265345616],["ĠMaria",-10.728458525921416],["sequence",-10.728696805748834],["å¡ĺ",-10.728725289779064],["nsylvania",-10.728743842455916],["cultural",-10.72888058283684],["éħįéŁ³",-10.72897937557909],["resence",-10.729043832983706],["åĦ¿åŃĲ",-10.729293557085462],["ĠMen",-10.729345895589145],["åı¤ä»£",-10.729564937846217],["é¢¨æł¼",-10.729732877301446],["Ġshape",-10.730623883372836],["physical",-10.73067937759712],["æ³°åľĭ",-10.731028025402477],["éĻĨ",-10.73125489008881],["ĠCoa",-10.73154148933079],["å°ĳå¥³",-10.731599164391676],["Ġspeed",-10.731965764392992],["è²ł",-10.732106976460448],["ĠDie",-10.73213092901032],["æĮĩå®ļ",-10.732213626601272],["éĮĦ",-10.732504219515883],["Ġren",-10.73284343990993],["DF",-10.732937457603512],["ras",-10.732973986552093],["äººç±»",-10.73307650925359],["ç²¾ç¥ŀ",-10.733262065821547],["æĪĳçļĦ",-10.733356351143646],["Ġcla",-10.73362823518261],["åĭĩ",-10.733971435482191],["Ġet",-10.7339934828291],["ĠRoss",-10.73412469018666],["èĮĤ",-10.734385019473455],["éĬ·åĶ®",-10.734504603616871],["USA",-10.734556733730804],["åŁİéĻħåĪĹè½¦",-10.734591547231094],["è®ĬæĪĲ",-10.734595024723966],["åĦĺç®¡",-10.734601326743222],["è¯·æ±Ĥ",-10.734668123524692],["oll",-10.735061731007027],["ĠAk",-10.735139500179134],["æ¯ıä¸ª",-10.735339785598718],["Ġachieve",-10.735390956670129],["æ¼Ķå¥ı",-10.73539470225164],["etting",-10.735793100538352],["ĠKu",-10.735903443972337],["æ³ķæ¡Ī",-10.73595810931996],["ĠGuard",-10.736003888429575],["ĠTho",-10.73611879180433],["ĠFour",-10.736575986295213],["ä¸įä¼ļ",-10.736576173357026],["org",-10.73658440252662],["ä¸Ģéĥ¨",-10.736634042199912],["spot",-10.736935235229955],["åĩºéģĵ",-10.737341342639414],["æ´²",-10.737463644962702],["lyn",-10.737528147360925],["åħĪçĶŁ",-10.737670678650408],["SO",-10.738415000515634],["å¤ªéĻ½",-10.738822282025785],["ä¸Ģæ®µ",-10.739000548474026],["åľ¨åħ¶",-10.739044310755895],["ĠBab",-10.739176687577135],["éĻ¶",-10.73920877635791],["åĬª",-10.73993124621701],["æĽ´åĬł",-10.740016394689146],["çĽĳ",-10.740139855487088],["éĺ»",-10.740202953192416],["éĵľ",-10.740292466463346],["åĿİ",-10.74043688803036],["Ġcapacit",-10.740519924267222],["è®®",-10.74055111977214],["å°½ç®¡",-10.740557063521669],["è®°èĢħ",-10.741006324638173],["hip",-10.74116985587403],["ĠSing",-10.74140862265722],["äº¤æĺĵ",-10.741524458499262],["onic",-10.741592669210542],["ä¸įåĪ°",-10.741745369661876],["ĠQ",-10.741900546394834],["journalist",-10.742044159958708],["ĠFlor",-10.742094026542716],["çı¾åł´",-10.742788452712714],["dai",-10.742900591328253],["ĠNation",-10.74326176554391],["æķĹ",-10.74368897932104],["èĤ²",-10.74376906457946],["ĠRod",-10.743852348082656],["ights",-10.743866465913722],["è°",-10.743920718784976],["()ãĢĤ",-10.744172334653772],["asco",-10.74440501144596],["Ġtempor",-10.744411601459063],["éº¥åħĭ",-10.744438924958052],["Ġcarr",-10.744781315034398],["ĠSc",-10.74532448571926],["æĪı",-10.74575365154976],["åľ¨ç¾İåľĭ",-10.745937275372649],["Accord",-10.74601007177878],["éĢ£çºĮ",-10.746195939560812],["å£½",-10.746336538677424],["å¢¨è¥¿åĵ¥",-10.746391065980047],["write",-10.74639221940344],["çĸ¾çĹħ",-10.746431666770672],["ç¸½çĿ£",-10.7465089185826],["undred",-10.746546768795891],["done",-10.746707429497494],["repeat",-10.746732233883218],["è®ĬåĮĸ",-10.74699807257851],["åĿ¦",-10.74717810987222],["ä¸ŃåĽ½å¤§éĻĨ",-10.747438547368551],["åĮĸåŃ¸",-10.747459521234925],["vis",-10.747467212879082],["fra",-10.748273908890171],["Ġstor",-10.748287065758866],["Ġstore",-10.748327511291242],["lip",-10.748475849692834],["mail",-10.74848330318672],["Ġred",-10.7490380684504],["Ġ42",-10.749093204111738],["orning",-10.749187754959744],["fell",-10.749781262050286],["owl",-10.749835399965956],["æł¸å¿ĥ",-10.74988240647765],["ĠTai",-10.750175473981848],["nes",-10.750475054611574],["ĠPop",-10.750580971776408],["Ġpri",-10.750833200986662],["éĻ£",-10.751194431146224],["è§ī",-10.75160187126367],["å·±",-10.751715922397713],["ä¸»è¦ģæĺ¯",-10.751729596333808],["æī¾",-10.751924549152402],["æ¯įäº²",-10.751983593746566],["Ġpurchas",-10.752235398638206],["ç¼ĸåī§",-10.752288609545657],["éĢŁéľ¸éĻ¸",-10.752343434689449],["çĬ¶æĢģ",-10.752359410991508],["æ£ĢæŁ¥",-10.752380003375642],["Ġconvert",-10.752444919639624],["ç¼ĸç»Ħ",-10.752456891859886],["èª¿æķ´",-10.752497861440505],["TA",-10.752546537876746],["çĻ¼åĭķ",-10.752607193124415],["adult",-10.75297999935427],["Ġhapp",-10.75315107748564],["Ġpurchase",-10.75361742473712],["creasing",-10.753643233888642],["Ġsubst",-10.75369600183162],["ĠBi",-10.75372196795955],["è°ĥæķ´",-10.753841241870305],["ĠSha",-10.75493887320184],["Ġschola",-10.75536574737612],["ä¸ĥå¹´",-10.75547755705388],["ahoma",-10.755688275662385],["çĿ£",-10.755991635219718],["ĠColon",-10.756127457524592],["Ġspee",-10.756241260052086],["azi",-10.756278741670153],["æľªä¾Ĩ",-10.756427917723425],["gricultur",-10.756596514252395],["spoke",-10.75678822621493],["attle",-10.757168334057774],["IT",-10.757294748096673],["stronomer",-10.757336255818275],["å®£ä¼ł",-10.757466050007794],["eng",-10.757598778496506],["æĬ½",-10.758315559277824],["Professor",-10.758331463593157],["Ġextrem",-10.758337939735249],["ç´°",-10.75835917875537],["ä¸Ŀ",-10.75836036409594],["shi",-10.75837724110518],["ç§»åĬ¨",-10.75855118057756],["rÃ©",-10.758638391280403],["ä»¥ä¿ĿåĬłåĪ©äºŀ",-10.758671415662084],["ĠEr",-10.758699448700682],["ĠCarr",-10.758699689167596],["æĮģæľī",-10.758844754071584],["rain",-10.758919056533532],["Ġrap",-10.75919690595006],["Ġinspir",-10.759700097444394],["å¡Ĭ",-10.759890406911456],["ons",-10.760352172146304],["éĥ¨éķ·",-10.76042735234497],["AT",-10.760635459712912],["Ġauthori",-10.761127307236189],["çĻ¼åĶ®",-10.76126854744528],["91",-10.76136112374245],["èĲ¬åħĥ",-10.761455159751756],["ä»ĸæĺ¯",-10.761657677218937],["sburg",-10.76200553637432],["ĠFa",-10.76212646677094],["aki",-10.762281572906204],["onian",-10.762708903683798],["ĠProject",-10.76279720037866],["æİ§",-10.762920569905797],["ĠTal",-10.763044824836616],["ĠPolic",-10.76327081783909],["lam",-10.763423605705889],["åĶ¯",-10.763619857873602],["åĨ¬",-10.763621335038351],["æĸĩåŃĹ",-10.76385613874182],["åīĽ",-10.763931218799852],["åŃ©åŃĲ",-10.763978815596564],["ä»¥æĿ±",-10.763982125603333],["å±¯",-10.764162265153333],["ison",-10.764226950382948],["Ġhistoric",-10.764310172450056],["åĪ©æĸĩæĸ¯éłĵå³¶",-10.764355553352315],["éĬħ",-10.764371699910416],["æ½ĺ",-10.764379850193126],["ç¹¼æī¿",-10.764445411098295],["çļĦåĦ¿åŃĲ",-10.764553151933264],["æ·¡æ°´",-10.764560040402731],["mann",-10.764605717329292],["å»ºè¨Ń",-10.764691890471788],["éĸĭæĶ¾",-10.764790610594908],["æµ·çģ£",-10.765027480452266],["åı·æľºè½¦",-10.766110011791124],["çĽ¸ä¼¼",-10.766314679446092],["ä»»åĳ½",-10.766328176076428],["å®ĺèĩ³",-10.766370684079629],["æ¯Ķå¦Ĥ",-10.766735542150323],["Ġma",-10.766805980491782],["ec",-10.766978763992142],["image",-10.7670695129897],["ecutive",-10.767350609134656],["ival",-10.767353884319904],["Ġextra",-10.767658924956685],["éĬĢè¡Į",-10.76793117475766],["olar",-10.768215239832989],["çļĦéĩįè¦ģ",-10.76826994430267],["Ġformal",-10.76858793061984],["ris",-10.76906865795829],["cycle",-10.769121373874167],["ĠSwi",-10.769470229074264],["Ġcol",-10.76958800912196],["èĳ£",-10.769868485459735],["upper",-10.76989359237842],["å§¬",-10.770024086201204],["æı´",-10.770059664983538],["å¼Ĥ",-10.770291530949375],["ĠTechnolog",-10.770416258848805],["confirm",-10.770451211156896],["æĿĤå¿Ĺ",-10.7704703683549],["book",-10.770531060362131],["Point",-10.770584197606228],["å±±ä¸ľ",-10.770621481009528],["fellow",-10.77070091013519],["ç©ºéĹ´",-10.77136006266572],["åįķæĽ²",-10.771417914655371],["plit",-10.771424407809006],["ãĢĭãĢģ",-10.771427542599303],["ä½¿çĶ¨èĢħ",-10.771519616933784],["Ã¤",-10.771728373597826],["real",-10.77198065188514],["å®īè£ħ",-10.7720978782836],["æľ¬åľ°",-10.772546158060102],["sort",-10.77268200586288],["ida",-10.772850367681931],["therland",-10.7731932446779],["éĹľæĸ¼",-10.773256630124038],["æĶ¹è®Ĭ",-10.773568022039388],["æ¦Ĥå¿µ",-10.773610653455057],["ĠCrow",-10.77364464323576],["etro",-10.773713104835522],["ĠTan",-10.774349011619403],["Ġmaster",-10.77436706377712],["sell",-10.774593637548048],["åįģåħ«",-10.77460287246285],["ĠAdam",-10.774739603458936],["ĠWell",-10.774877126326285],["çµĤ",-10.775427397645691],["çļĦçłĶç©¶",-10.775677200832655],["bad",-10.775883733187351],["éĩįå¤§",-10.775912146227364],["çµķ",-10.77613363616166],["lake",-10.776219292594549],["direct",-10.77622315533074],["çĨĬ",-10.77641065800347],["è«ĩ",-10.776439224516524],["é§ķé§Ľ",-10.77650859057874],["å°ĸ",-10.776525750451444],["å²³",-10.776536614357196],["ĠEu",-10.776549551205516],["çº¦ç¿°",-10.776556474374871],["è§£åĨ³",-10.776607685062512],["ç§»åĭķ",-10.776636005601627],["Ġban",-10.776643651139509],["ĠCollect",-10.776672268010367],["åįĹæĸ¹",-10.776747848566284],["Ap",-10.77683305606222],["National",-10.776834419242077],["Ġpress",-10.7769364761442],["measure",-10.7785105361108],["ĠGame",-10.77909005733186],["pper",-10.779106910155155],["fe",-10.779190853410892],["çĽĬ",-10.779233039132462],["åįķä½į",-10.77945125100164],["éĺ¿å°Ķ",-10.779635143617192],["è¥¿åĮĹéĿ¢",-10.77984605640851],["Ġbrand",-10.779893424065248],["çļĦèĥ½åĬĽ",-10.77999968274084],["å·¥åħ·",-10.780471209975516],["Na",-10.780701658881783],["å¹´åīį",-10.780722567472427],["ico",-10.78091468306478],["ĠCre",-10.781128820054096],["è¯ĳ",-10.781482633509714],["Ca",-10.781663781248064],["assenger",-10.781666582456433],["FI",-10.781765490878165],["gi",-10.781954522157562],["din",-10.78204704747725],["å®¿",-10.782138202266616],["è¯¸",-10.782141336227172],["å¸½",-10.78225935052498],["å§ļ",-10.782270678173065],["replace",-10.782317675804952],["èİĬ",-10.782518422038525],["éĹ®",-10.782646274365028],["åĸĩåĺĽ",-10.782648689850364],["éłĪ",-10.78265522323369],["è¡¨éĿ¢",-10.782794381068015],["oba",-10.782992624484304],["å´Ķè¥¿",-10.78299841954926],["Fi",-10.782999399753637],["ĠSqua",-10.783008681343318],["Ġidentifi",-10.783121047494324],["èµĽåŃ£",-10.783337189324442],["Channel",-10.783735195441045],["Ġden",-10.783896627698464],["æŃ¢",-10.784028614591882],["ĠCub",-10.784915116607095],["å®¶äºº",-10.785148120584186],["äºĶåįģ",-10.785320132268126],["çįİéłħ",-10.785334714514352],["rely",-10.78551880411404],["å±±è¥¿",-10.785723702672325],["giv",-10.785870222994202],["Ġver",-10.786294937184907],["åĽ´",-10.786668101565432],["åįĹåĮĹ",-10.786858342186935],["ä½ıå®ħ",-10.78709550409755],["åıĥ",-10.787109390473503],["ä»¥å¾Į",-10.787198769952404],["ä¸įå¾Ĺ",-10.78793723426755],["ĠBol",-10.788274386180982],["ä¸»æķĻ",-10.788341585891724],["Ġenvironment",-10.788507561183865],["ä¿Ĺ",-10.788528248189303],["ç²ī",-10.788741102307384],["çīĻ",-10.788748890725834],["æĻ®éģį",-10.78888018013534],["çµ±æ²»",-10.788889116973916],["åģ¥åº·",-10.788924477518153],["ä¸¤ä¾§",-10.788940496684846],["çļĦæŃĮæĽ²",-10.788951361973242],["Ġfavor",-10.788967797127777],["Premier",-10.789043770185415],["æĶ¹åĸĦ",-10.789119971651552],["éĢ¢",-10.789273548906968],["aster",-10.789306647999856],["ĠBand",-10.789321750072878],["åĬ³",-10.789355333900616],["èµ·åĪĿ",-10.789510334903516],["ĠChil",-10.78951584770199],["è¡¨æĺİ",-10.789553972173271],["ĠBeau",-10.789664633605282],["ĠBridge",-10.789968374086351],["ĠUr",-10.79010032045022],["ĠBull",-10.7903128654499],["top",-10.791191593579754],["éĥ¨éķ¿",-10.791223552475136],["ä¸ĸçºªåĪĿ",-10.79136765568067],["å¼",-10.792197733079554],["ĠIndo",-10.792351725088402],["åį",-10.792664808061918],["Ġever",-10.792691706588188],["ks",-10.792836497413951],["Ġfil",-10.794023089091786],["ack",-10.794023432620795],["èįĴ",-10.794924023537105],["çĶŁæ¶¯",-10.79492504464664],["æĬķèµĦ",-10.79500686367908],["å£ģçĶ»",-10.795077763019291],["æĪĺå½¹",-10.79522666966589],["éĢļçŁ¥",-10.795502990081475],["Ġswitch",-10.795657600259217],["æĶ¯æµģ",-10.795999226662598],["çĶµè§Ĩåı°",-10.79627885781461],["ĠKy",-10.796888514391966],["äº",-10.796909719899777],["å¤ªåŃĲ",-10.79711684382465],["ĠIslam",-10.797374689639277],["serving",-10.797393192207627],["è©²åľĭ",-10.797697153979774],["onflict",-10.798530984451048],["Commander",-10.79905609004648],["æĭīæĸ¯",-10.799100472931828],["å®ĥä»¬",-10.799475358709731],["ĠSub",-10.800073512844913],["ĠPap",-10.800376199894268],["éĩĩ",-10.800537370132],["road",-10.8006121554169],["Com",-10.800947567190931],["Un",-10.800982646959824],["è´¥",-10.800990334780604],["èĢĥæħ®",-10.801298009923071],["pi",-10.801406881785685],["produce",-10.801555103446866],["Billboard",-10.802186339609918],["ç¾ħé¦¬",-10.802217540003324],["coat",-10.802242194981709],["æ¡ĥ",-10.802870176642088],["çī¹èī²",-10.803014533518745],["Earth",-10.803289318334333],["æŃ¤æĹ¶",-10.803306823195271],["forward",-10.803433771334907],["æķĻåłĤ",-10.80343500320994],["mind",-10.804175248237314],["ç»Ń",-10.804224785642456],["ĠFair",-10.804825425786374],["çİĭæľĿ",-10.805126870556157],["æĸŃ",-10.805402129298448],["Ġlibr",-10.805642092018743],["cus",-10.805811939968796],["ĠCur",-10.806450162688986],["è§£æĶ¾",-10.806573631850036],["éĴ",-10.80684718024289],["å¥³ä¸»è§Ĵ",-10.806849622883783],["ĠKe",-10.807108707070055],["è¯Ħè®º",-10.807222637300216],["çķª",-10.807440859011024],["åĿļ",-10.807467272988866],["æģĲæĢĸ",-10.807534839660748],["çŃĴ",-10.807556760418002],["Ġportray",-10.807617978440565],["Ġbio",-10.807725365166084],["serve",-10.807805323947136],["jan",-10.807823127872304],["rising",-10.807954165981766],["å¤ļäºº",-10.808390149535796],["ç½ĳç«Ļ",-10.808935863218432],["Ġabs",-10.808947386553418],["kins",-10.8090403289653],["å¤©åħĶ",-10.809057328232251],["list",-10.80909146035864],["åĽ½åĨħ",-10.809580310580234],["ç§ģäºº",-10.809595935587325],["å´İ",-10.809795010692834],["ä¸ľåįĹ",-10.809999379095274],["Ġfish",-10.810023540981158],["nderson",-10.810137090517207],["Ġcustom",-10.810162151732662],["Ġfirm",-10.810254028868387],["Ġwood",-10.81061985135111],["äººæ°ĳæĶ¿åºľ",-10.810691083898313],["å®ĺåĵ¡",-10.811088426962629],["My",-10.811483884548256],["Do",-10.811745312062753],["metric",-10.811881675839864],["Ġforest",-10.81197078567392],["ĠOs",-10.812205384581524],["ail",-10.812397588723057],["captain",-10.812476503666012],["Ġsuit",-10.812672160288471],["èį·èĺŃ",-10.81291637715223],["cies",-10.81294082036288],["é¢Ŀ",-10.81304521285708],["Ġmemor",-10.81316052343002],["éŁ©",-10.813532264560976],["åĮĹäº¬å¸Ĥ",-10.81357452806331],["æĺĨ",-10.813695240479484],["å¹´åĪĿ",-10.81373972402901],["troduction",-10.813773193218708],["æ¢¦",-10.813840286184677],["åĬ©çĲĨ",-10.81394411660672],["é¸Ł",-10.813950731888518],["emperature",-10.814022489100328],["æķ¸æĵļ",-10.814074423332547],["æīĵç®Ĺ",-10.814082263227846],["åĺīéĿĸ",-10.814195225933968],["Ġrecommend",-10.814420370822162],["ĠHind",-10.81443412465756],["mental",-10.814531097273608],["åĨħçļĦ",-10.814797810332024],["TO",-10.814938109377014],["ĠCal",-10.815029117845665],["èº«ä¸Ĭ",-10.815404675027592],["Ġmodif",-10.815729513008217],["hester",-10.815736106151942],["éĽ»è¦ĸåı°",-10.815838689816504],["ptr",-10.81590255936323],["Ġund",-10.815939577475516],["æĭĨéĻ¤",-10.816099792263392],["åĢĭæĢ§",-10.816106404624175],["äºĭæķħ",-10.816240640893769],["CV",-10.816307238876252],["é¢¨æļ´",-10.816738853149111],["ltimate",-10.817411351643234],["å·ŀåĪºåı²",-10.817535320922604],["Ġcouple",-10.818054587720518],["file",-10.818087280532025],["vor",-10.818346723333883],["bs",-10.818437815377992],["èĪŀåı°",-10.818570857132602],["ĠSpring",-10.818659900618968],["Jan",-10.818951923010168],["Ġcelebrat",-10.81896617256278],["æĮĩæı®",-10.81958237464077],["åĢī",-10.820162739713624],["Firefox",-10.82027058042316],["Build",-10.820275728966475],["ä¸½åħ¹",-10.820297825785229],["èŃ¦åĳĬ",-10.820370075872496],["è¨Ńå®ļ",-10.82058314519239],["ä»£çĲĨ",-10.820746877382549],["ç»Łä¸Ģ",-10.820766169778391],["æĩ·",-10.820882721970309],["ãĢį()",-10.820916164288551],["ç°¡",-10.82094106170667],["tale",-10.821591521019895],["å²¡",-10.821835989957124],["ĠKor",-10.822143476746286],["onstant",-10.822548226328577],["Ġsponsor",-10.82266207226057],["ĠTig",-10.8228657863954],["joy",-10.823178726392914],["æ¿Ģ",-10.823227727077423],["abour",-10.823231559540233],["ĠNight",-10.823520048455446],["ç©į",-10.82376579542004],["ding",-10.82386868265896],["Ġnecess",-10.825123167187389],["å°ļæľª",-10.825568135848156],["Ġinitiat",-10.825825113970446],["quarters",-10.825898401657682],["å¹¼",-10.82629778117485],["Ġsettle",-10.826343921555376],["éķľ",-10.826516903475005],["åħ«å¹´",-10.826602184061803],["ĠMedic",-10.826625419908805],["Ġprincipal",-10.82668084518524],["è¿Ľä¸ĢæŃ¥",-10.826699890181668],["åģī",-10.826703447483403],["ä¸°",-10.826806902327462],["ç¡®å®ļ",-10.826920627407834],["æĶ¶åĪ°",-10.826943395150044],["è¶ħç´ļ",-10.827013602106565],["æĿ°åħĭ",-10.827269293501924],["pool",-10.827381507336346],["register",-10.827418095574728],["è³ĩè¨Ĭ",-10.827447223436408],["åħ¼ä»»",-10.82750977672426],["ĠPalm",-10.827627388283576],["åıĺåĮĸ",-10.827656838518791],["ä¹Ŀå¹´",-10.827819973147758],["Ġcrim",-10.82821671175725],["vian",-10.828268131280192],["ĠHuman",-10.828338927536452],["éķ·æľŁ",-10.82877154086744],["èº«é«Ķ",-10.828924673544211],["PP",-10.828969721098549],["scope",-10.829129483556144],["æī¿èªį",-10.8293141986377],["å®ĺåĳĺ",-10.829439991080555],["Pa",-10.829891668953463],["ĠPier",-10.829966705422276],["Ġcontent",-10.830093574615711],["è½¦åİ¢",-10.830353237048255],["ä»¥è¥¿",-10.830440034020588],["æĺŁæľŁ",-10.830624125200298],["å¦»",-10.831361986601742],["äººä»¬",-10.831452058908358],["äº¡",-10.831997234733748],["doctor",-10.832001676379337],["etc",-10.832130417308305],["ç»Łæ²»",-10.832300956253428],["æŀĿ",-10.832419119045747],["ĠCho",-10.83244754028262],["é©",-10.83245886254027],["æ»",-10.83248529533753],["captur",-10.832521886644011],["åįĶ",-10.832537826138982],["Ġprove",-10.832555856537436],["é¦ĸåħĪ",-10.832608783281447],["æĪĴ",-10.833069288761932],["éĿľ",-10.833129820141911],["Ġdemonstrat",-10.83313427256604],["èĪĴ",-10.833155541325285],["museum",-10.833311025564385],["èģ¯è³½",-10.833374775706114],["Ġcere",-10.833480747567137],["çī¹åĪ«",-10.833693576150075],["regional",-10.833766805838604],["è¨ĺéĮĦ",-10.833882112224344],["Ġachiev",-10.834106732269348],["è¿Ĳè¾ĵ",-10.834448270788624],["åľ¨é¦Ļæ¸¯",-10.83504167345336],["èĢĮè¨Ģ",-10.83569942874747],["By",-10.835792209833084],["ä¸Ģå®ļ",-10.835878882752676],["ES",-10.836123394591302],["çļĦåīį",-10.836180705365178],["æĭīèĲ¨å¸Ĥ",-10.83618364650074],["åĩ»è´¥",-10.836559370819188],["ä¸Ĭæľī",-10.836871345948923],["åľĭåħ§",-10.836924118999288],["ä»¤äºº",-10.83693969182952],["æķĮ",-10.83759947865704],["æīĢæľīçļĦ",-10.837690315453052],["ĠPlay",-10.838387213386609],["è©²å±±å³°",-10.838684865753851],["ä¸ľéĥ¨",-10.838708663322391],["æĻī",-10.839020113203068],["éĩįéĩı",-10.839063653650785],["Ġgra",-10.839327573495892],["å¯¿",-10.83940304135976],["ç¨¿",-10.839415583374327],["éĤĦæĺ¯",-10.839476724406635],["èª¤",-10.83952972952646],["è¶Ļ",-10.839632418614546],["Ġdem",-10.839651914914215],["åĲ¨",-10.839674972761395],["èª²ç¨ĭ",-10.839683472085277],["åı¯ä»¥åľ¨",-10.83973436146734],["ĠBru",-10.839757872035076],["å»¢",-10.839981659952835],["çĻ»åł´",-10.840109623774229],["æµ·æ´ĭ",-10.840224920614183],["ĠThre",-10.840231936932884],["çĪĨçĻ¼",-10.840674125917744],["Ġpossess",-10.84078135141609],["pin",-10.84085860934598],["å¤§çº¦",-10.841189295818616],["Ġethn",-10.841504258312357],["èĳĹä½ľ",-10.84161330577106],["çļĦå·¥ä½ľ",-10.842674039204963],["åįģä¸ī",-10.84280529391231],["wait",-10.84288095420029],["Buddh",-10.843400600007628],["æĪĲäºĨ",-10.843479751778148],["mile",-10.843516442657364],["vestment",-10.843584152981006],["ABC",-10.8440045336055],["ĠWork",-10.844011186398587],["erland",-10.84435571551941],["pment",-10.844454684757851],["éĢ²å£«",-10.844474142991732],["äºĮäºº",-10.845003157052238],["ĠÐ",-10.845193140498122],["æľĪèĩ³",-10.845937435873346],["åĭ¤",-10.845977803470848],["äº¨",-10.84601284013183],["å¯¦é©Ĺ",-10.846106000648527],["åı",-10.846169973853364],["çĭ¼",-10.846185657270702],["ĠDun",-10.846247776035426],["unt",-10.846289241587904],["æ´»ä½Ľ",-10.846304484376804],["Ġcheck",-10.846313648630648],["åĮĹæĸ¹",-10.84649127743394],["çĻ¼å¸ĥ",-10.847041249528408],["ĠSecu",-10.847196951543076],["Ġwall",-10.84731369664488],["çļĩåĲİ",-10.847315020447486],["ĠTrain",-10.847579494026418],["blue",-10.84783576547913],["En",-10.848436534426572],["efense",-10.848492617327675],["ç§ĺå¯Ĩ",-10.848646070892404],["è¢«ç¨±çĤº",-10.84866810977104],["acult",-10.848670865454224],["åľĭç«ĭ",-10.848710434396972],["äºĴ",-10.848966689787911],["æĸ°å¢ŀ",-10.849074680032306],["äºĨè§£",-10.849227949233049],["Ġwind",-10.849308884154862],["ult",-10.84947465109266],["Ġdetect",-10.849581876769166],["æľ¬çīĩ",-10.84971748257174],["åİŁæĿ¥",-10.849786394267412],["é£İæł¼",-10.850343342437352],["rior",-10.850350697351471],["CS",-10.850371833279008],["Ġlo",-10.85043795710291],["èĩªæ²»",-10.8504485194484],["ĠMah",-10.85052408598657],["åħ§éĥ¨",-10.850539074232804],["ĠSocial",-10.85079618830319],["speak",-10.85098620888034],["Ġnet",-10.851080372809344],["odge",-10.851325693369745],["åĵģçīĮ",-10.851564368394577],["åįĴ",-10.852283089654811],["æī®æ¼Ķ",-10.852335368390102],["Ġsettl",-10.852550365416691],["Ġcontest",-10.85274933664084],["æĻ´",-10.852778810128695],["åħĴç«¥",-10.852780688045971],["è½¦è¾Ĩ",-10.852798766227862],["åīµç«ĭ",-10.852873367397816],["Ġ35",-10.85308598015091],["åĩıå°ĳ",-10.85309503414764],["Ġutili",-10.853300841570556],["å·ŀå¸Ĥ",-10.853776298733656],["create",-10.853817479787867],["uburb",-10.85390608639827],["é¦ĸæĴŃ",-10.854110265373626],["CL",-10.854241083077213],["bia",-10.854560645076608],["Unit",-10.854674976842777],["angle",-10.854875668407937],["è¡ĽæĺŁ",-10.85506031682617],["ilitary",-10.855416120693484],["Ġbill",-10.855605589601687],["ä¸Ĭå¸Ĥ",-10.855629740651583],["winter",-10.856253340647168],["Ġgreen",-10.856362137619168],["Ġca",-10.856468916370266],["ious",-10.85654733064968],["çļĦä½įç½®",-10.85679339772038],["rie",-10.856894717698832],["HP",-10.856977350463684],["å°±è®Ģ",-10.857046091132185],["iel",-10.857109904877335],["Ġdigit",-10.85712109178543],["èĬĿ",-10.857271798322715],["å¥³åŃ©",-10.857455882103958],["åĲĮä¸Ģ",-10.857670722688106],["æ¶ī",-10.857894187892246],["kh",-10.857909625608286],["æĹ¢",-10.858008335590656],["older",-10.858285137723918],["ç´Ĳç´Ħ",-10.858330632810478],["é«®",-10.858740817290062],["çĶļ",-10.858842441020428],["å¿į",-10.858902436590377],["pon",-10.858955416460136],["è³Ģ",-10.859078666925123],["flag",-10.859149551495886],["å¹³æĸ¹åħ¬éĩĮ",-10.859363807942348],["éľ¸",-10.859378824699604],["èħ°",-10.859425346418654],["lit",-10.859441339496414],["æĿ¡ä»¶",-10.859595162011926],["è§Ĥä¼Ĺ",-10.859595572914492],["Ãº",-10.859624237265711],["pilot",-10.859801751162866],["orce",-10.859833584875382],["ĠHeart",-10.86031889055873],["tank",-10.860463499683508],["earning",-10.861376411083356],["ennis",-10.861636918083317],["AP",-10.862601698281065],["Ġvan",-10.862807231645816],["åķĨäºº",-10.86312144510834],["åĮĸåŃ¦",-10.863642381126844],["åĺİ",-10.863731731976047],["Ġaff",-10.864008146043831],["åľ°åĮºçļĦ",-10.864071527464048],["ewer",-10.864906512539523],["çİ°åľº",-10.865014671749195],["hot",-10.865014878868866],["çĦ¶å¾Į",-10.865022046698238],["åĲįä¸º",-10.865267133577255],["Ġfel",-10.865510478249014],["Ġ70",-10.865533628173202],["ĠHay",-10.865556190275768],["çºª",-10.865645762207494],["åħ¨éķ·",-10.865674243930272],["DC",-10.865698210373058],["åłħ",-10.865742164198966],["çŃĸ",-10.865770809010048],["è¬Ľ",-10.8657998033266],["è¨Ĥ",-10.865857177519214],["åİĺç±³",-10.866030022513556],["åĿĿ",-10.866046441150736],["åħģè®¸",-10.86605040294368],["å²Ń",-10.866052559039897],["éłĺåŁŁ",-10.866071450717442],["è¿ŀç»Ń",-10.866094018222386],["AKB",-10.86622024925112],["mperial",-10.866515596609684],["etts",-10.866754488592385],["ä¸ľäº¬",-10.866992795326862],["160",-10.867082085068478],["Ġcompet",-10.867330083908175],["è¡ĮçĤº",-10.867331859974886],["Ġaccident",-10.867376299315978],["hap",-10.867404561932588],["big",-10.867609687151294],["å¤§ä¼ļ",-10.867668858923617],["ä¸¦æľª",-10.86779633986894],["risk",-10.867898730558284],["oth",-10.868265135593912],["ĠFort",-10.868563721465456],["Ġformat",-10.868753319037474],["ç¾İåľĭæµ·è»į",-10.869218141713205],["IN",-10.869225905242075],["Ġeye",-10.869321579096624],["ä¸įæĸ·",-10.869344956674505],["ĠLan",-10.869491404916246],["ä½ľæĪĺ",-10.869713027327183],["140",-10.870404095992274],["ĠStudi",-10.870630119873836],["ĠWolf",-10.870638592389842],["ĠBrig",-10.870747928720943],["Fe",-10.870749508406076],["ĠSound",-10.870751942990069],["é¡į",-10.870968665150164],["åĲĪæĪĲ",-10.87111271850269],["åħ¬å¼Ģ",-10.87115989847359],["ä»¥åīį",-10.87116248843201],["æĺ¾",-10.871344611035711],["åľį",-10.871506168891424],["AC",-10.871518969852264],["ĠAsh",-10.87180160271742],["ĠMas",-10.871959033988478],["é£ĵé£İ",-10.872079296051249],["tin",-10.872125856910516],["æĬķéĻį",-10.8722374335969],["Ġhero",-10.872519409093393],["ng",-10.872619354598289],["èĵĿ",-10.872646833846744],["éģ·",-10.87265459269148],["å±ı",-10.87270265328982],["éĮ¦æ¨Ļè³½",-10.872722797974298],["ä»¥èī²åĪĹ",-10.87274076217086],["ç¾ħå¾Ĺè¥¿äºŀ",-10.872741429510356],["æļ¨",-10.872764043885349],["çµĲå©ļ",-10.87278097060731],["Mix",-10.872785151334238],["è¨ŃåĤĻ",-10.872804076074305],["æľįå½¹",-10.87285639345976],["Ġequat",-10.872915188902455],["ricket",-10.872988111556278],["Ġexplo",-10.87308244744414],["Ġimpact",-10.87310853619114],["fast",-10.873135143619953],["åĲİèĢħ",-10.87327797424647],["table",-10.873311554084568],["ĠStone",-10.873331621916613],["ĠTon",-10.873960732241049],["ç¬¬ä¸ĢåĢĭ",-10.874632198272918],["Jo",-10.874955870972729],["å¹´çĶ±",-10.87501246881161],["DA",-10.875104154974618],["è¥²æĵĬ",-10.875115832825774],["Äĩ",-10.875733634403977],["å¤©æ´¥",-10.87576349271247],["æĺ¯ç¾İåĽ½",-10.875790430365884],["ÃŃa",-10.87591442682638],["åŁºåĽł",-10.876084391167764],["ĠGran",-10.876637609619172],["Historic",-10.87739883839902],["point",-10.877484262476376],["lumni",-10.877543629037811],["Me",-10.877899299142276],["ç©ºä¸Ńçħ§çīĩ",-10.878159897545832],["è¦Ĩ",-10.87821509710614],["åĳ¼",-10.878455977934609],["Ġval",-10.878464124991366],["ĠKenn",-10.87859914600753],["yl",-10.878694209569652],["ponent",-10.87880412804192],["å®ĥåĢĳ",-10.878875476884373],["è¥²",-10.879288814884976],["FM",-10.879347310597206],["çģ°",-10.879370829572323],["è©¹å§Ĩæĸ¯",-10.879434684536063],["äºĮä¸ĸ",-10.879544205487168],["è¯ķåĽ¾",-10.879591267850945],["peace",-10.879630437138154],[")ãĢį",-10.879773076335404],["ears",-10.87981219959381],["æĶ¶èĹı",-10.879876222973069],["ancy",-10.880185697713634],["æĶ¶éĽĨ",-10.880280486074543],["æķ°éĩı",-10.880468255510593],["æ¨Ĥåľĺ",-10.880523027548554],["ove",-10.880542235345064],["æŁıæŀĹ",-10.880760498460493],["ç«ĭåį³",-10.880837257112136],["åĩºå¸Ń",-10.881462177810509],["ĠTru",-10.88160424159998],["win",-10.881629639250743],["æıĲåĪ°",-10.882050379700068],["åĩºçĶŁäºİ",-10.88222817442828],["teel",-10.88235318823744],["åıĳèµ·",-10.882593800866914],["bond",-10.88267661523082],["nuclear",-10.882715436250704],["ĠWarri",-10.882780588969736],["achus",-10.882806322634174],["ĠPower",-10.882855624240849],["Some",-10.882903775314984],["raw",-10.883018267735114],["å¾ŀäºĭ",-10.883072141186544],["TVB",-10.883864748184674],["å±ķç¤º",-10.884001444313146],["åĲįåŃĹ",-10.884178888353146],["ograph",-10.884362218713388],["å½¢è±¡",-10.884436601559754],["æĨĳ",-10.884547468924254],["å»£å·ŀ",-10.884564682821429],["xia",-10.884629428310657],["aylor",-10.884661706232508],["Ġnominat",-10.884877413550305],["SU",-10.885215621986184],["Ġgu",-10.885240367167247],["çİĭåŃĲ",-10.88528757458463],["Ġauto",-10.885448167893344],["kok",-10.885508309217002],["å¿ħ",-10.885697699559266],["çĴ",-10.88580951982516],["å´Ķ",-10.885934582049469],["åıĶ",-10.886231335319614],["stable",-10.88623149053103],["è«¸",-10.886322616914544],["ales",-10.886389761065686],["æ°ĳçľ¾",-10.886448695906829],["äºĭåĭĻ",-10.886776018276016],["ido",-10.886834070611949],["erial",-10.88725936598332],["éĢīæīĭ",-10.887472884011276],["éĩĳå±¬",-10.887514900597097],["ä¸»æĮģäºº",-10.887592604877447],["aptain",-10.887704344615589],["br",-10.887797188257876],["å¯ºåºĻ",-10.888549487460692],["Ġincident",-10.888582809964449],["Mo",-10.888806812209843],["Ġinva",-10.888931464766744],["Ġfair",-10.889020330669728],["composition",-10.889170160774382],["ä¸Ģèĩ´",-10.889588643971544],["çĽ®çļĦ",-10.889800573667806],["éĻĦè¿ĳçļĦ",-10.889918563537249],["Ġappli",-10.89020940641421],["è¥¿åįĹéĿ¢",-10.890422914682446],["åĿĹ",-10.890604966217044],["ewis",-10.891204027190742],["çªģ",-10.891234998534886],["expected",-10.89202311759768],["chemical",-10.892058478595576],["ĠBir",-10.892080154802931],["disput",-10.89224364540668],["èĩªèº«",-10.892699925016778],["åĿĬ",-10.893178899270112],["æĽ°",-10.893201445030195],["è»Łé«Ķ",-10.89322214371673],["å¿ħè¦ģ",-10.89335846503362],["èĪªçıŃ",-10.89392012090767],["éĻ·åħ¥",-10.893953035123577],["æıĴ",-10.89402384925654],["statement",-10.894093553986078],["ĠMore",-10.894104266611723],["Ġpursu",-10.894167168180996],["Ġequal",-10.894587192816896],["Ġpremier",-10.894661205832238],["èŀį",-10.894733177028082],["ä½ľåĩº",-10.895001083946896],["dar",-10.895165210833442],["Ġroyal",-10.895378651113782],["ĠSho",-10.895398333405655],["åķĨä¸ļ",-10.89545002282901],["æĪĺæĸĹ",-10.895530739082776],["oma",-10.895580563839603],["åŁºæĸ¼",-10.896123984972093],["fiction",-10.896184833906442],["MC",-10.896372410859591],["å°ıåŀĭ",-10.896522646267169],["ĠGen",-10.896630334922431],["ums",-10.89676402797414],["èĩºåĮĹ",-10.89689459140147],["éĢ£æİ¥",-10.897147055996497],["çİĭåĽ½",-10.898398130703324],["æľĢå¤ļ",-10.89853398301928],["isters",-10.898649267924691],["communication",-10.89879355990761],["ĠMoor",-10.898964160002503],["æ¹ĸåįĹ",-10.899017325508332],["çĸĳ",-10.899047026883864],["é«ĶèĤ²",-10.899061427539856],["pur",-10.899413911340911],["åľĭæľĥ",-10.899422729827226],["è®²",-10.89964017685875],["æģ¯",-10.899750509452245],["éĩįè¦ģçļĦ",-10.89978680648802],["æģ¶",-10.899814447378612],["ä¹Ķ",-10.899915375531346],["yet",-10.89992920055489],["å®ļå±ħ",-10.89995169960988],["sked",-10.89997419181976],["Ġtradition",-10.900027325789264],["åľ",-10.900047688423468],["è¨ªåķı",-10.900067431371337],["çĶ³è«ĭ",-10.900102059399282],["cha",-10.90032801725269],["è©¦åľĸ",-10.900588008926142],["phase",-10.90090513310942],["Ġcancel",-10.901420833730946],["Ġweight",-10.90164287661035],["ä¸ŃåĽ½åħ±äº§åħļ",-10.90171280626269],["æĶ¹åıĺ",-10.901989912214349],["çķĻä¸ĭ",-10.901997160557844],["æĽ²çĽ®",-10.90225462036225],["æįķ",-10.902679782041282],["åĮĸçļĦ",-10.902750957724637],["ĠWay",-10.90334220830539],["åŃ¦å®¶",-10.903733095189065],["ction",-10.90439591452195],["agazine",-10.90444714859184],["thy",-10.904476950504602],["BE",-10.904503815382895],["æıĲåıĬ",-10.90462084327434],["rey",-10.90469597685733],["éĢļå¾Ģ",-10.904762201896602],["motion",-10.90477607111664],["è¡¨çİ°",-10.90480273245807],["Ġrestor",-10.904815412812283],["Ġpath",-10.9049024780385],["ä¹Łæľĥ",-10.9049794215507],["æŃ£éĿ¢",-10.905232320469604],["ocomotive",-10.905310499770437],["ĠMedia",-10.905394015146602],["dish",-10.905715616147694],["ank",-10.905733360942849],["ĠMag",-10.905805560212483],["åŁºçĿ£æķĻ",-10.906164668123155],["ä¿®å»º",-10.906228817714712],["å®¡",-10.90629584533879],["ç»§",-10.906374015558717],["Ġguard",-10.906508175934295],["rom",-10.9065504725814],["é»İ",-10.906569136652656],["ric",-10.90693951465558],["erald",-10.906949389932135],["è³ŀ",-10.906951301510572],["è¢Ńåĩ»",-10.90701783799658],["åĿĤ",-10.907020397373536],["èĦļ",-10.907021692139695],["éĵº",-10.907032988030725],["eninsula",-10.90706329703372],["çĲĨè«ĸ",-10.907145139910732],["æ®ºæŃ»",-10.907188724311448],["åĲĮæł·",-10.907252588555371],["vin",-10.907253479575626],["åľ¨åĵªéĩĮ",-10.9076506210686],["å¯©",-10.908380372797758],["ride",-10.908464248750564],["string",-10.908952538327773],["Ã©r",-10.909164478786725],["ä¸Ģåľº",-10.909217113820173],["ussian",-10.909301619806577],["æŃ¥åħµ",-10.90935600028446],["emand",-10.90948191009727],["ĠKell",-10.909653545524677],["RO",-10.90988654159301],["åıĤ",-10.909904500322767],["éĢĻæ¬¡",-10.910035891832184],["å»ºç«ĭäºĨ",-10.910076033095192],["issu",-10.910141915203631],["Ġappea",-10.910180953229723],["relations",-10.910726519811906],["Ġrain",-10.910741285045203],["sense",-10.91082175359809],["generation",-10.91153720653334],["æĺŃ",-10.91154453110095],["ĠMak",-10.912161131205565],["åħ¶ä¸ŃåĮħæĭ¬",-10.912354565627378],["åīµ",-10.912530325066117],["sk",-10.912571072026177],["æ±º",-10.912621635230389],["æĮĤ",-10.912916264295154],["cut",-10.913054505762284],["çĸı",-10.91305735465935],["AU",-10.913290338947796],["ä»¥å¤ĸ",-10.91343670125125],["è§Ģæ¸¬",-10.913448753051885],["ature",-10.913552606853088],["éĺ´",-10.91368301493665],["ä»¿",-10.913788823449371],["dog",-10.913902648260784],["æĸ°çĸĨ",-10.91392629223108],["èĦ±",-10.913949916584354],["å¹³æĸ¹åįĥç±³",-10.913984251790424],["å²Ĺ",-10.914019610426726],["è³¢",-10.914027190866848],["æİªæĸ½",
[...]
